{"!": 0, "\"": 1, "#": 2, "$": 3, "%": 4, "&": 5, "'": 6, "(": 7, ")": 8, "*": 9, "+": 10, ",": 11, "-": 12, ".": 13, "/": 14, "0": 15, "1": 16, "2": 17, "3": 18, "4": 19, "5": 20, "6": 21, "7": 22, "8": 23, "9": 24, ":": 25, ";": 26, "<": 27, "=": 28, ">": 29, "?": 30, "@": 31, "A": 32, "B": 33, "C": 34, "D": 35, "E": 36, "F": 37, "G": 38, "H": 39, "I": 40, "J": 41, "K": 42, "L": 43, "M": 44, "N": 45, "O": 46, "P": 47, "Q": 48, "R": 49, "S": 50, "T": 51, "U": 52, "V": 53, "W": 54, "X": 55, "Y": 56, "Z": 57, "[": 58, "\\": 59, "]": 60, "^": 61, "_": 62, "`": 63, "a": 64, "b": 65, "c": 66, "d": 67, "e": 68, "f": 69, "g": 70, "h": 71, "i": 72, "j": 73, "k": 74, "l": 75, "m": 76, "n": 77, "o": 78, "p": 79, "q": 80, "r": 81, "s": 82, "t": 83, "u": 84, "v": 85, "w": 86, "x": 87, "y": 88, "z": 89, "{": 90, "|": 91, "}": 92, "~": 93, "¡": 94, "¢": 95, "£": 96, "¤": 97, "¥": 98, "¦": 99, "§": 100, "¨": 101, "©": 102, "ª": 103, "«": 104, "¬": 105, "®": 106, "¯": 107, "°": 108, "±": 109, "²": 110, "³": 111, "´": 112, "µ": 113, "¶": 114, "·": 115, "¸": 116, "¹": 117, "º": 118, "»": 119, "¼": 120, "½": 121, "¾": 122, "¿": 123, "À": 124, "Á": 125, "Â": 126, "Ã": 127, "Ä": 128, "Å": 129, "Æ": 130, "Ç": 131, "È": 132, "É": 133, "Ê": 134, "Ë": 135, "Ì": 136, "Í": 137, "Î": 138, "Ï": 139, "Ð": 140, "Ñ": 141, "Ò": 142, "Ó": 143, "Ô": 144, "Õ": 145, "Ö": 146, "×": 147, "Ø": 148, "Ù": 149, "Ú": 150, "Û": 151, "Ü": 152, "Ý": 153, "Þ": 154, "ß": 155, "à": 156, "á": 157, "â": 158, "ã": 159, "ä": 160, "å": 161, "æ": 162, "ç": 163, "è": 164, "é": 165, "ê": 166, "ë": 167, "ì": 168, "í": 169, "î": 170, "ï": 171, "ð": 172, "ñ": 173, "ò": 174, "ó": 175, "ô": 176, "õ": 177, "ö": 178, "÷": 179, "ø": 180, "ù": 181, "ú": 182, "û": 183, "ü": 184, "ý": 185, "þ": 186, "ÿ": 187, "Ā": 188, "ā": 189, "Ă": 190, "ă": 191, "Ą": 192, "ą": 193, "Ć": 194, "ć": 195, "Ĉ": 196, "ĉ": 197, "Ċ": 198, "ċ": 199, "Č": 200, "č": 201, "Ď": 202, "ď": 203, "Đ": 204, "đ": 205, "Ē": 206, "ē": 207, "Ĕ": 208, "ĕ": 209, "Ė": 210, "ė": 211, "Ę": 212, "ę": 213, "Ě": 214, "ě": 215, "Ĝ": 216, "ĝ": 217, "Ğ": 218, "ğ": 219, "Ġ": 220, "ġ": 221, "Ģ": 222, "ģ": 223, "Ĥ": 224, "ĥ": 225, "Ħ": 226, "ħ": 227, "Ĩ": 228, "ĩ": 229, "Ī": 230, "ī": 231, "Ĭ": 232, "ĭ": 233, "Į": 234, "į": 235, "İ": 236, "ı": 237, "Ĳ": 238, "ĳ": 239, "Ĵ": 240, "ĵ": 241, "Ķ": 242, "ķ": 243, "ĸ": 244, "Ĺ": 245, "ĺ": 246, "Ļ": 247, "ļ": 248, "Ľ": 249, "ľ": 250, "Ŀ": 251, "ŀ": 252, "Ł": 253, "ł": 254, "Ń": 255, "he": 256, "Ġt": 257, "Ġa": 258, "Ġs": 259, "Ġw": 260, "nd": 261, "Ġthe": 262, "ed": 263, "Ġand": 264, "Ġto": 265, "Ġb": 266, "in": 267, "Ġh": 268, "Ġwa": 269, "re": 270, "ou": 271, "Ġf": 272, "it": 273, "Ġl": 274, "Ġc": 275, "Ġd": 276, "er": 277, "Ġm": 278, "Ġp": 279, "Ġwas": 280, "ĠT": 281, "ĠĠ": 282, "om": 283, "Ġo": 284, "ay": 285, "is": 286, "ing": 287, "il": 288, "Ġg": 289, "ar": 290, "id": 291, "at": 292, "en": 293, "Ġn": 294, "Ġsa": 295, "Ġha": 296, "ĠS": 297, "an": 298, "ĠThe": 299, "im": 300, "or": 301, "on": 302, "Ġit": 303, "Ġth": 304, "ll": 305, "le": 306, "ĠH": 307, "ot": 308, "ĠShe": 309, "ir": 310, "et": 311, "ĠHe": 312, "es": 313, "Ġin": 314, "ver": 315, "ut": 316, "ow": 317, "ĠThey": 318, "ck": 319, "Ġy": 320, "Ġu": 321, "ld": 322, "oo": 323, "Ġsaid": 324, "ily": 325, "Ġ\"": 326, "ig": 327, "Ġe": 328, "Ġbe": 329, "am": 330, "ĠI": 331, "Ġst": 332, "ke": 333, "ce": 334, "Ġr": 335, "Ġshe": 336, "ve": 337, "pp": 338, "ith": 339, "ĠL": 340, "Ġwith": 341, "On": 342, "Ġyou": 343, "Ġof": 344, "ri": 345, "Ġhis": 346, "Ġpl": 347, "ad": 348, "very": 349, "Ġday": 350, "Ġthat": 351, "Ġso": 352, "ĠLily": 353, "Ġup": 354, "ĠOn": 355, "Ġplay": 356, "Ġthey": 357, "ted": 358, "Ġmom": 359, "ĠB": 360, "el": 361, "Ġfor": 362, "un": 363, "ould": 364, "'s": 365, "my": 366, "Ġli": 367, "ch": 368, "tle": 369, "Ġhapp": 370, "Ġsh": 371, "The": 372, "Ġnot": 373, "st": 374, "Ġvery": 375, "se": 376, "Ġwh": 377, "ĠM": 378, "ime": 379, "Ġk": 380, "Ġtime": 381, "Ġlittle": 382, "Ġba": 383, "Ġne": 384, "ht": 385, "al": 386, "Ġhappy": 387, "Ġbig": 388, "Ġsm": 389, "Ġis": 390, "ĠIt": 391, "Ġdo": 392, "ĠĠĠ": 393, "Ġbut": 394, "Ġsaw": 395, ".\"": 396, "riend": 397, "ry": 398, "Ġfriend": 399, "Ġas": 400, "ly": 401, "ent": 402, "'t": 403, "ake": 404, "!\"": 405, "Ġloo": 406, "ug": 407, "Ġwere": 408, "ide": 409, "ra": 410, "Ġlo": 411, "ĠOnce": 412, "Ġhim": 413, "Ġgo": 414, "Ġbo": 415, "ĠTim": 416, "Ġj": 417, "irl": 418, "Ġwanted": 419, "Ġupon": 420, "Ġgirl": 421, "Ġthem": 422, "ĠA": 423, "ec": 424, "Ġtheir": 425, "fu": 426, "way": 427, "Ġsp": 428, "Ġdid": 429, "Ġcould": 430, "Ġhave": 431, "ĠJ": 432, "Ġex": 433, "ĠBen": 434, "ur": 435, "rom": 436, "ome": 437, "Ġwent": 438, "Ġcan": 439, "ter": 440, "ful": 441, "?\"": 442, "ard": 443, "ĠTom": 444, "Ġfriends": 445, "hing": 446, "Ġnam": 447, "Ġhelp": 448, "Ġkn": 449, "ĠOne": 450, "um": 451, "Ġback": 452, "ain": 453, "Ġcl": 454, "Ġno": 455, "You": 456, "ark": 457, "op": 458, "Ġsc": 459, "Ġsmiled": 460, "Ġnamed": 461, "Ġstar": 462, "Ġloved": 463, "side": 464, "Ġman": 465, "elt": 466, "Ġasked": 467, "Ġtoy": 468, "Ġlike": 469, "Ġfelt": 470, "Ġlooked": 471, "Ġsee": 472, "Ġaround": 473, "Ġme": 474, "ĠW": 475, "ĠTimmy": 476, "ame": 477, "ic": 478, "Ġbir": 479, "get": 480, "Ġwould": 481, "Ġboy": 482, "Ġwe": 483, "Ġwant": 484, "Ġbird": 485, "Ã¢": 486, "âĤ": 487, "âĤ¬": 488, "Ġfa": 489, "one": 490, "Ġag": 491, "Ġwor": 492, "Ġwhat": 493, "Ġmake": 494, ",\"": 495, "king": 496, "Ġmad": 497, "ĠBut": 498, "gether": 499, "Ġsays": 500, "Ġfe": 501, "Ġtre": 502, "Ġaway": 503, "dd": 504, "Ġcar": 505, "ĠYou": 506, "Ġstarted": 507, "if": 508, "Ġmade": 509, "Ġtogether": 510, "Ġsomething": 511, "Ġpark": 512, "Ġco": 513, "Ġother": 514, "Ġnew": 515, "Ġput": 516, "Ġfrom": 517, "ro": 518, "Ġexc": 519, "Ġhug": 520, "Ġagain": 521, "Ġmu": 522, "Ġhome": 523, "Ġgood": 524, "ep": 525, "Ġwho": 526, "na": 527, "Lily": 528, "hat": 529, "Ġfl": 530, "Ġfound": 531, "ach": 532, "ried": 533, "Ġdec": 534, "as": 535, "qu": 536, "Ġplaying": 537, "Ġab": 538, "One": 539, "ie": 540, "Ġsw": 541, "ĠE": 542, "Ġthings": 543, "Ġexcited": 544, "aug": 545, "ge": 546, "ight": 547, "ny": 548, "ĠMom": 549, "Ġbl": 550, "ave": 551, "ĠD": 552, "Ġdecided": 553, "Ġcame": 554, "ack": 555, "Ġevery": 556, "bb": 557, "ax": 558, "Ġdog": 559, "Ġscared": 560, "Ġdown": 561, "ouse": 562, "Ġfind": 563, "nna": 564, "ust": 565, "Ġthan": 566, "Ġthoug": 567, "Ġbu": 568, "Ġfeel": 569, "ue": 570, "They": 571, "udd": 572, "Ġv": 573, "Ġlook": 574, "Ġwill": 575, "uck": 576, "ned": 577, "ways": 578, "Ġdidn": 579, "ĠSam": 580, "Ġtook": 581, "Ġalways": 582, "Ġabout": 583, "Ġtoys": 584, "Ġmommy": 585, "Ġkne": 586, "Ġoutside": 587, "ĠF": 588, "Ġtree": 589, "ty": 590, "Ġlear": 591, "Ġthought": 592, "Ġmore": 593, "eci": 594, "Ġknow": 595, "ble": 596, "Ġold": 597, "ap": 598, "ous": 599, "ood": 600, "Ġlaug": 601, "ant": 602, "Ġtake": 603, "ĠMax": 604, "ecial": 605, "Ġspecial": 606, "Ġknew": 607, "udden": 608, "to": 609, "ive": 610, "Ġdad": 611, "fter": 612, "uddenly": 613, "Ġhow": 614, "Ġcat": 615, "Ġshow": 616, "Ġpu": 617, "au": 618, "Ġexp": 619, "ĠSara": 620, "Ġsorry": 621, "ĠAnna": 622, "ia": 623, "Ġrun": 624, "But": 625, "Ġtw": 626, "Ġpe": 627, "ish": 628, "Ġmuch": 629, "Ġhouse": 630, "Ġsl": 631, "Ġsk": 632, "ower": 633, "Ġclo": 634, "Ġinto": 635, "Ġsun": 636, "Ġtried": 637, "Ġinside": 638, "Ġtold": 639, "ks": 640, "Ġthis": 641, "roud": 642, "Ġproud": 643, "Ġif": 644, "Ġgave": 645, "Ġcouldn": 646, "Ġheard": 647, "Ġover": 648, "Ġeach": 649, "Ġnever": 650, "by": 651, "ĠWe": 652, "Ġeat": 653, "ĠEvery": 654, "Ġexpl": 655, "ause": 656, "Ġpret": 657, "Ġplayed": 658, "Ġhugged": 659, "Ġmo": 660, "Ġjust": 661, "Ġgre": 662, "Mom": 663, "Ġma": 664, "Ġoff": 665, "Ġbox": 666, "'m": 667, "Ġneed": 668, "Ġbecause": 669, "ump": 670, "Ġbear": 671, "Ġjo": 672, "gry": 673, "ving": 674, "ĠJo": 675, "imal": 676, "Ġanimal": 677, "Ġnice": 678, "iz": 679, "Ġpo": 680, "ion": 681, "Ġtry": 682, "ĠJack": 683, "Ġunt": 684, "Ġho": 685, "uc": 686, "Ġsmall": 687, "Ġuntil": 688, "Ġlearned": 689, "Ġqu": 690, "Ġkind": 691, "em": 692, "ort": 693, "ĠMia": 694, "Ġbetter": 695, "Ġim": 696, "Ġflower": 697, "ning": 698, "Ġtr": 699, "ting": 700, "Ġfo": 701, "ine": 702, "ace": 703, "ady": 704, "Yes": 705, "Ġhur": 706, "ĠC": 707, "ĠAnd": 708, "Ġsaf": 709, "Tom": 710, "Ġgard": 711, "Ġcareful": 712, "Ġgarden": 713, "Åĵ": 714, "Th": 715, "Ġthanked": 716, "Ġsky": 717, "Ġlaughed": 718, "Ġjump": 719, "He": 720, "Ġloud": 721, "ear": 722, "Ġgl": 723, "self": 724, "Ġsur": 725, "It": 726, "Ġeven": 727, "Ġbeaut": 728, "Ġbeautiful": 729, "Ġlove": 730, "Ġlong": 731, "Ġlots": 732, "Ġanimals": 733, "Ġstill": 734, "ite": 735, "ĠÃ¢": 736, "Ġunder": 737, "hn": 738, "Ġta": 739, "Ġstay": 740, "ink": 741, "Ġhurt": 742, "Ġboth": 743, "ĠHis": 744, "be": 745, "Ġsafe": 746, "rong": 747, "ĠFrom": 748, "Ġcol": 749, "ft": 750, "Ġtur": 751, "ree": 752, "Ġtwo": 753, "kay": 754, "Ġimp": 755, "ople": 756, "ook": 757, "Ġwalked": 758, "ucy": 759, "Ġshould": 760, "ank": 761, "Ġits": 762, "Ġangry": 763, "ĠSo": 764, "No": 765, "Ġsurp": 766, "igh": 767, "Ġfamily": 768, "Ġflew": 769, "Ġpeople": 770, "ob": 771, "Ġcalled": 772, "When": 773, "Ġbrave": 774, "Let": 775, "az": 776, "Ġdan": 777, "fore": 778, "Ġshare": 779, "ĠP": 780, "Ġkept": 781, "xt": 782, "ma": 783, "ane": 784, "ream": 785, "ip": 786, "Ġpic": 787, "Ġgoing": 788, "âĤ¬â": 789, "sh": 790, "Ġpretty": 791, "Ġte": 792, "Ġkeep": 793, "ner": 794, "iff": 795, "Ġshiny": 796, "Ġnoise": 797, "Ġadvent": 798, "Ġcry": 799, "Tim": 800, "Ġopened": 801, "Ġdoll": 802, "Ġwind": 803, "Ġac": 804, "Ġbefore": 805, "Ġide": 806, "Ġreal": 807, "so": 808, "Ġfeeling": 809, "ate": 810, "What": 811, "Ġalso": 812, "Ġdra": 813, "Ġground": 814, "ff": 815, "Ġexplore": 816, "Ġey": 817, "Ġnodd": 818, "Ħ¢": 819, "âĤ¬âĦ¢": 820, "Ġidea": 821, "Ġnodded": 822, "oy": 823, "Ġnext": 824, "ĠLucy": 825, "Ġclim": 826, "thing": 827, "Ġcolor": 828, "Ġwalking": 829, "Ġsmile": 830, "Ġwhile": 831, "Ġgra": 832, "ĠG": 833, "th": 834, "ix": 835, "ak": 836, "ummy": 837, "Ġbeing": 838, "Ġdiff": 839, "ĠSp": 840, "Ġgive": 841, "Ġpict": 842, "joy": 843, "Ġeyes": 844, "Ġkit": 845, "Ġdel": 846, "Ben": 847, "Ġsn": 848, "Ġstopped": 849, "Thank": 850, "Ġrepl": 851, "Ġafter": 852, "Ġbre": 853, "Ġvo": 854, "ect": 855, "ĠSuddenly": 856, "Ġwond": 857, "Ġhead": 858, "Ġbro": 859, "Ġflowers": 860, "Ġremem": 861, "Ġgreat": 862, "Ġclean": 863, "Ġblue": 864, "Ġenjoy": 865, "ress": 866, "Ġever": 867, "Ġhands": 868, "Ġimport": 869, "Suddenly": 870, "She": 871, "Ġnoticed": 872, "bbit": 873, "Ġfish": 874, "Ġquick": 875, "age": 876, "ized": 877, "Ġimportant": 878, "llow": 879, "Ġlisten": 880, "Ġslide": 881, "Ġreplied": 882, "Ġokay": 883, "ĠJohn": 884, "Ġshowed": 885, "gan": 886, "Ġru": 887, "Ġrabbit": 888, "bye": 889, "Ġmean": 890, "Ġus": 891, "ĠMommy": 892, "Ġswing": 893, "day": 894, "ila": 895, "Ġtruck": 896, "We": 897, "Ġwatched": 898, "Ġfollow": 899, "ĠBob": 900, "ĠSpot": 901, "Ġeveryone": 902, "Ġyear": 903, "Ġswe": 904, "Ġvoice": 905, "Ġbeen": 906, "aybe": 907, "Ġquickly": 908, "Ġboat": 909, "So": 910, "Ġdis": 911, "ĠSue": 912, "Ġchild": 913, "Ġdifferent": 914, "Ġcuri": 915, "ĠR": 916, "irst": 917, "Ġbecame": 918, "Ġdoes": 919, "Look": 920, "Ġwalk": 921, "Ġgoodbye": 922, "Ġhigh": 923, "Ġplace": 924, "Ġcloser": 925, "Ġwarm": 926, "Ġwork": 927, "gs": 928, "Ġmag": 929, "sy": 930, "Ġcurious": 931, "Ġforg": 932, "ol": 933, "Ġbright": 934, "Ġde": 935, "Ġcake": 936, "Ġfav": 937, "Ġbit": 938, "Ġthree": 939, "Ġblo": 940, "more": 941, "Ġanymore": 942, "Ġnight": 943, "Ġz": 944, "Ġwait": 945, "Ġfirst": 946, "Ġopen": 947, "Ġpain": 948, "Ġbutter": 949, "Can": 950, "Ġstrong": 951, "Ġgrabbed": 952, "Ġkid": 953, "Ġonly": 954, "up": 955, "Ġlearn": 956, "Ġbirds": 957, "Ġkitchen": 958, "ds": 959, "Ġfin": 960, "Ġjumped": 961, "Ġpar": 962, "Ġcont": 963, "Ġglad": 964, "Ġhelped": 965, "Ġadventure": 966, "aper": 967, "ĠSarah": 968, "ious": 969, "Ġhappened": 970, "Ġdress": 971, "Ġshouted": 972, "Ġsqu": 973, "Ġbeh": 974, "ĠJane": 975, "After": 976, "Ġbunny": 977, "Ġdraw": 978, "Ġreached": 979, "Ġrealized": 980, "ĠDad": 981, "Ġyummy": 982, "Ġsing": 983, "Ġgrass": 984, "Ġlady": 985, "Ġhaving": 986, "air": 987, "Ġprin": 988, "Ġsweet": 989, "'re": 990, "Ġrock": 991, "rough": 992, "Ġsoft": 993, "Ġfavorite": 994, "Ġgame": 995, "Ġsit": 996, "ĠDo": 997, "ĠAs": 998, "ĠEveryone": 999, "Ġthrough": 1000, "Ġready": 1001, "where": 1002, "Ġbegan": 1003, "Ġwatch": 1004, "ĠJoe": 1005, "Ġpaper": 1006, "Ġmagic": 1007, "us": 1008, "Ġcut": 1009, "Ġhimself": 1010, "Ġworld": 1011, "Ġwonder": 1012, "Ġhun": 1013, "Ġcoming": 1014, "Ġbutterf": 1015, "Ġwhy": 1016, "Ġcre": 1017, "Ġpretend": 1018, "Ġprom": 1019, "Ġcars": 1020, "Ġtired": 1021, "Wow": 1022, "Ġfix": 1023, "Ġfro": 1024, "Ġworry": 1025, "Mommy": 1026, "aisy": 1027, "Ġdelic": 1028, "Ġfunny": 1029, "Anna": 1030, "Ġcried": 1031, "Jo": 1032, "uff": 1033, "Ġanother": 1034, "Ġparents": 1035, "Ġblocks": 1036, "ins": 1037, "Sara": 1038, "Ġdoing": 1039, "Ġturn": 1040, "Ġhopped": 1041, "Ġsurprise": 1042, "Ġfarm": 1043, "\".": 1044, "As": 1045, "Ġlesson": 1046, "Ġcatch": 1047, "hy": 1048, "Ġthink": 1049, "Ġfloor": 1050, "ĠLila": 1051, "Ġclimb": 1052, "Don": 1053, "Ġwindow": 1054, "Ġbehind": 1055, "Ġrunning": 1056, "Ġdin": 1057, "Ġyellow": 1058, "Ġwished": 1059, "ros": 1060, "ign": 1061, "Ġswim": 1062, "Ġyears": 1063, "Timmy": 1064, "Ġspot": 1065, "Ġ-": 1066, "Ġread": 1067, "Ġhappily": 1068, "Ġsleep": 1069, "ul": 1070, "ike": 1071, "ĠIn": 1072, "Ġlost": 1073, "Ġdark": 1074, "Hello": 1075, "Ġbutterfly": 1076, "Ġfire": 1077, "ten": 1078, "Ġlaugh": 1079, "Ġremembered": 1080, "uit": 1081, "rew": 1082, "Ġice": 1083, "Ġneeded": 1084, "Ġbuy": 1085, "ass": 1086, "iss": 1087, "able": 1088, "Ġslow": 1089, "Ġperf": 1090, "Ġstick": 1091, "Ġleft": 1092, "Ġanything": 1093, "Ġwrong": 1094, "Ġenjoyed": 1095, "Ġpicture": 1096, "Ġfollowed": 1097, "Ġmove": 1098, "Ġstran": 1099, "Ġchildren": 1100, "Ġsho": 1101, "Ġdir": 1102, "ĠTommy": 1103, "Ġsnow": 1104, "Ġdelicious": 1105, "Ġfinished": 1106, "Ġfriendly": 1107, "Ġmess": 1108, "Ġhill": 1109, "aw": 1110, "Ġherself": 1111, "Ġunderst": 1112, "Ġcontin": 1113, "Ġgrow": 1114, "Ġplease": 1115, "Ġcomp": 1116, "Ġclose": 1117, "Ġarm": 1118, "Ġunderstand": 1119, "Ġown": 1120, "Ġelse": 1121, "Ġfrog": 1122, "Ġbaby": 1123, "Ġarrived": 1124, "Ġforgot": 1125, "cess": 1126, "Ġwonderful": 1127, "Ġcolors": 1128, "Ġbuild": 1129, "ĠDaisy": 1130, "Ġbroken": 1131, "ough": 1132, "ĠBenny": 1133, "ĠSally": 1134, "bo": 1135, "ĠNow": 1136, "irrel": 1137, "Ġtight": 1138, "Ġsomeone": 1139, "Ġfilled": 1140, "Ġagreed": 1141, "Ġwants": 1142, "Ġbag": 1143, "Ġcontinued": 1144, "Ġsquirrel": 1145, "Ġpat": 1146, "'ll": 1147, "ross": 1148, "ĠEm": 1149, "Ġleaves": 1150, "Ġpink": 1151, "OK": 1152, "Ġyes": 1153, "From": 1154, "Ġfr": 1155, "Sam": 1156, "Ġenough": 1157, "gon": 1158, "av": 1159, "Ġvis": 1160, "oke": 1161, "Ġgetting": 1162, "Ġmorning": 1163, "Ġask": 1164, "ĠK": 1165, "zy": 1166, "John": 1167, "Ġcookies": 1168, "ĠMaybe": 1169, "Ġstayed": 1170, "Ġpoin": 1171, "co": 1172, "Ġcreat": 1173, "Ġscary": 1174, "Ġsometimes": 1175, "Ġgrandma": 1176, "Ġhungry": 1177, "Ġbeach": 1178, "ĠBilly": 1179, "Ġju": 1180, "Ġfew": 1181, "Ġdinner": 1182, "Ġtrying": 1183, "Ġamazing": 1184, "Ġothers": 1185, "Ġdaddy": 1186, "ĠThis": 1187, "icy": 1188, "Ġcastle": 1189, "Ġperfect": 1190, "This": 1191, "ong": 1192, "key": 1193, "Jack": 1194, "His": 1195, "ag": 1196, "At": 1197, "Ġwhite": 1198, "dy": 1199, "Ġdream": 1200, "Ġballoon": 1201, "Ġtail": 1202, "Ġduck": 1203, "Ġtalk": 1204, "asure": 1205, "Ġspl": 1206, "Ġalone": 1207, "ct": 1208, "Oh": 1209, "Ġpuppy": 1210, "ee": 1211, "Ġwasn": 1212, "ĠJim": 1213, "Ġeverything": 1214, "Ġstrange": 1215, "ance": 1216, "Ġwoods": 1217, "amp": 1218, "uffy": 1219, "Ġwon": 1220, "Ġfox": 1221, "ucky": 1222, "Ġmight": 1223, "Ġbreak": 1224, "ĠAmy": 1225, "ling": 1226, "Ġspark": 1227, "Ġtreat": 1228, "Ġleave": 1229, "Ġmusic": 1230, "Ġamazed": 1231, "Ġhide": 1232, "apped": 1233, "Ġstart": 1234, "ĠJen": 1235, "Ġtowards": 1236, "Ġruns": 1237, "Ġflying": 1238, "Ġsilly": 1239, "Ġmonster": 1240, "Ġliving": 1241, "Ġshap": 1242, "Okay": 1243, "Maybe": 1244, "Ġpromised": 1245, "Ġbelie": 1246, "cle": 1247, "Ġlake": 1248, "Ġquiet": 1249, "Ġparty": 1250, "ĠMolly": 1251, "Ġsister": 1252, "ĠGrand": 1253, "sw": 1254, "igg": 1255, "Ġmoney": 1256, "ple": 1257, "Ġcolorful": 1258, "Ġansw": 1259, "Max": 1260, "ually": 1261, "Ġbran": 1262, "Ġworried": 1263, "Ġcup": 1264, "Ġslowly": 1265, "Ġpieces": 1266, "ever": 1267, "Ġvisit": 1268, "rove": 1269, "tain": 1270, "Ġgrateful": 1271, "ne": 1272, "Ġsuch": 1273, "Ġheav": 1274, "Ġremember": 1275, "Ġpaint": 1276, "ĠAll": 1277, "ions": 1278, "Ġblack": 1279, "Ġcho": 1280, "Ġdangerous": 1281, "Ġblanket": 1282, "Ġbike": 1283, "Sure": 1284, "Ġsmart": 1285, "Ġeverywhere": 1286, "ĠJill": 1287, "Ġmagical": 1288, "Ġfarmer": 1289, "Ġhelping": 1290, "ming": 1291, "Ġacross": 1292, "Ġmonkey": 1293, "Ġmost": 1294, "ĠTo": 1295, "Ġhid": 1296, "Ġdolls": 1297, "Why": 1298, "Ġstepp": 1299, "Ġjoin": 1300, "Ġdisapp": 1301, "Ġreach": 1302, "Ġdirty": 1303, "Ġwords": 1304, "Ġheavy": 1305, "Hi": 1306, "Ġtwins": 1307, "Ġthrew": 1308, "Ġcrying": 1309, "Ġstepped": 1310, "Ġbowl": 1311, "de": 1312, "Ġdoctor": 1313, "ĠFl": 1314, "lease": 1315, "os": 1316, "Ġbelieve": 1317, "zz": 1318, "Ġprincess": 1319, "Ġfield": 1320, "Ġwin": 1321, "Ġcarrot": 1322, "ĠMr": 1323, "Ġfruit": 1324, "Ġwouldn": 1325, "Ġheart": 1326, "Ġstuck": 1327, "Ġhoped": 1328, "Ġfeels": 1329, "Ġmix": 1330, "Ġsign": 1331, "Ġbasket": 1332, "Ġhit": 1333, "rayon": 1334, "Ġsuddenly": 1335, "Ġcrayon": 1336, "Ġtown": 1337, "Ġcourse": 1338, "Ġbrown": 1339, "fort": 1340, "Ġschool": 1341, "Ġchair": 1342, "Ġbutton": 1343, "Ġplant": 1344, "Ġclapped": 1345, "Ġlun": 1346, "ipped": 1347, "hone": 1348, "althy": 1349, "Ġdrove": 1350, "Ġwelcome": 1351, "Ġneigh": 1352, "Ġwithout": 1353, "Ġtoday": 1354, "Ġthrow": 1355, "cident": 1356, "ĠN": 1357, "Ġteacher": 1358, "ĠMary": 1359, "Ġpocket": 1360, "Ġpiece": 1361, "Ġyard": 1362, "Ġstand": 1363, "Ġexplained": 1364, "Ġtreasure": 1365, "Ġaccident": 1366, "ead": 1367, "Finally": 1368, "Ġdry": 1369, "ible": 1370, "ub": 1371, "Ġsang": 1372, "hant": 1373, "Ġlate": 1374, "Ġturns": 1375, "Mia": 1376, "Ġshoes": 1377, "ney": 1378, "ract": 1379, "Ġsinging": 1380, "Ġalong": 1381, "Ġdropp": 1382, "Ġgift": 1383, "Ġjar": 1384, "Ġupset": 1385, "Ġelephant": 1386, "Ġsecret": 1387, "Ġwish": 1388, "Ġplan": 1389, "cy": 1390, "Ġfence": 1391, "Ġmine": 1392, "Ġstreet": 1393, "Ġlunch": 1394, "Ġyoung": 1395, "ĠGrandma": 1396, "Ġfight": 1397, "Ġstars": 1398, "Ġnaughty": 1399, "gle": 1400, "Ġexploring": 1401, "Ġwise": 1402, "aught": 1403, "Ġcaught": 1404, "Ġnearby": 1405, "yard": 1406, "Do": 1407, "Ġbring": 1408, "Ġbackyard": 1409, "Ġdropped": 1410, "Ġowl": 1411, "Ġsea": 1412, "Ġseemed": 1413, "Ġpurple": 1414, "Ġswam": 1415, "Ġmiss": 1416, "itten": 1417, "Ġshapes": 1418, "af": 1419, "Ġje": 1420, "Ġresp": 1421, "Ġorange": 1422, "Ġrelie": 1423, "Ġ3": 1424, "ĠMama": 1425, "ĠEmma": 1426, "Ġmin": 1427, "umber": 1428, "Ġbench": 1429, "Ġfit": 1430, "Ġwoke": 1431, "Ġatt": 1432, "og": 1433, "ĠO": 1434, "Ġjuice": 1435, "Ġpast": 1436, "Ġrainbow": 1437, "Ġtiny": 1438, "rown": 1439, "cing": 1440, "Ġarms": 1441, "Ġholding": 1442, "ĠFluffy": 1443, "thday": 1444, "Ġsitting": 1445, "Ġdaughter": 1446, "Ġpart": 1447, "raid": 1448, "Ġbranch": 1449, "Ġcoat": 1450, "alm": 1451, "orm": 1452, "Ġsug": 1453, "Ġcir": 1454, "Ġmail": 1455, "Ġafraid": 1456, "Ġcount": 1457, "Ġdriver": 1458, "Ġsail": 1459, "ĠInside": 1460, "Ġcute": 1461, "Ġspoon": 1462, "ĠTw": 1463, "Ġrelieved": 1464, "Ġgu": 1465, "Ġkno": 1466, "Of": 1467, "Ġsick": 1468, "Ġcarry": 1469, "irt": 1470, "Ġhello": 1471, "ĠJimmy": 1472, "Ġsmell": 1473, "Ġpromise": 1474, "ĠCome": 1475, "Ġpatient": 1476, "Ġpeace": 1477, "Ġchan": 1478, "Ġgrab": 1479, "board": 1480, "Ġletter": 1481, "And": 1482, "Ġdays": 1483, "Ġsunny": 1484, "Ġonto": 1485, "ĠSammy": 1486, "Hey": 1487, "ilk": 1488, "Ġdrink": 1489, "Ġexciting": 1490, "arp": 1491, "Ġbottle": 1492, "Ġlife": 1493, "Ġcraw": 1494, "Ġjourney": 1495, "Ġdisco": 1496, "Ġswimming": 1497, "Ġcozy": 1498, "Ġsharp": 1499, "Ġhope": 1500, "shine": 1501, "Ġmist": 1502, "Ġinstead": 1503, "Ġhappen": 1504, "Ġmilk": 1505, "Ġsuc": 1506, "Ġinc": 1507, "ittens": 1508, "Ġlucky": 1509, "Ġaccidentally": 1510, "Ġputs": 1511, "Ġspin": 1512, "Ġcave": 1513, "Ġcall": 1514, "Ġpointed": 1515, "Ġretur": 1516, "Ġanswer": 1517, "Ġsunshine": 1518, "Ġeg": 1519, "Ġneighbor": 1520, "lace": 1521, "Later": 1522, "Wh": 1523, "ball": 1524, "itch": 1525, "Ġsmiling": 1526, "ness": 1527, "Ġanyone": 1528, "Ġsearched": 1529, "Ġwoman": 1530, "Ġinv": 1531, "ize": 1532, "Ġproblem": 1533, "Ġsandw": 1534, "Good": 1535, "ation": 1536, "Ġhealthy": 1537, "Ġpile": 1538, "Ġspider": 1539, "Ġinteresting": 1540, "ÅĵI": 1541, "Ġcrayons": 1542, "Ġwide": 1543, "Ġrope": 1544, "Ġadm": 1545, "Ġvill": 1546, "Lucy": 1547, "Ġcalm": 1548, "Ġclouds": 1549, "pa": 1550, "Ġprot": 1551, "Ġshining": 1552, "Ġcorner": 1553, "ĠWith": 1554, "fortable": 1555, "Ġfront": 1556, "Ġperson": 1557, "Ġcolour": 1558, "Ġscreamed": 1559, "Ġbr": 1560, "Ġmud": 1561, "Ġpract": 1562, "Ġval": 1563, "Ġste": 1564, "Ġsnowman": 1565, "Ġnumber": 1566, "isa": 1567, "Ġfeather": 1568, "Ġspotted": 1569, "Ġorgan": 1570, "Come": 1571, "Ġmatter": 1572, "Ġminut": 1573, "Ġpuzz": 1574, "Ġroad": 1575, "Ġappeared": 1576, "ze": 1577, "Ġwhich": 1578, "ular": 1579, "Ġasleep": 1580, "Lila": 1581, "Just": 1582, "Ġgently": 1583, "Ġgoes": 1584, "ĠAn": 1585, "Ġhorse": 1586, "Ġwild": 1587, "rum": 1588, "Ġpresent": 1589, "Ġphone": 1590, "ĠEmily": 1591, "Ġconfused": 1592, "ĠEll": 1593, "Ġforgive": 1594, "cean": 1595, "Ġocean": 1596, "Ġgiant": 1597, "Ġsupp": 1598, "mer": 1599, "Ġrespect": 1600, "ĠCh": 1601, "Ġdrive": 1602, "ĠHow": 1603, "Ġrude": 1604, "Ġspent": 1605, "Ġmachine": 1606, "nic": 1607, "Ġpicnic": 1608, "Every": 1609, "Ġoven": 1610, "orrow": 1611, "ĠJenny": 1612, "Ġfurry": 1613, "ĠGo": 1614, "Ġlay": 1615, "ging": 1616, "ĠMittens": 1617, "In": 1618, "Ġcookie": 1619, "ĠMum": 1620, "ward": 1621, "Ġhelpful": 1622, "Ġwip": 1623, "Ġchocol": 1624, "Ġlast": 1625, "ab": 1626, "ittle": 1627, "Ġtomorrow": 1628, "Ġzoo": 1629, "bar": 1630, "Ġladder": 1631, "Ġeventually": 1632, "Ġcoin": 1633, "arge": 1634, "ife": 1635, "Ġign": 1636, "Ġbuilding": 1637, "Ġshirt": 1638, "Ġvillage": 1639, "Ġstret": 1640, "Bob": 1641, "Ġeager": 1642, "Ġpuddle": 1643, "Ġwrite": 1644, "Ġhiding": 1645, "Ġspread": 1646, "ĠAl": 1647, "Ġchased": 1648, "Ġblew": 1649, "Ġtreats": 1650, "not": 1651, "ult": 1652, "Ġsmooth": 1653, "Ġfinish": 1654, "My": 1655, "Ġchocolate": 1656, "cap": 1657, "Ġcannot": 1658, "ĠJake": 1659, "Ġembar": 1660, "Ġstring": 1661, "Ġleaf": 1662, "now": 1663, "Ġstir": 1664, "Ġcrab": 1665, "Ġshelf": 1666, "Tommy": 1667, "Ġtaste": 1668, "Ġlarge": 1669, "ĠSometimes": 1670, "Ġselfish": 1671, "Ġfixed": 1672, "ĠEverywhere": 1673, "box": 1674, "Ġscar": 1675, "Ġspray": 1676, "Please": 1677, "Ġtidy": 1678, "Ġkiss": 1679, "gu": 1680, "ĠLe": 1681, "Ġceleb": 1682, "ĠLisa": 1683, "Ġcur": 1684, "Ġpeaceful": 1685, "Ġnecklace": 1686, "Ġland": 1687, "Ġ'": 1688, "ird": 1689, "Ġchicken": 1690, "Ġjungle": 1691, "ĠTheir": 1692, "ex": 1693, "Ġhears": 1694, "Ġcloud": 1695, "Ġcreature": 1696, "Ġprotect": 1697, "ĠTV": 1698, "oin": 1699, "ped": 1700, "Ġtea": 1701, "Ġcreative": 1702, "Ġstr": 1703, "Ġjumping": 1704, "Ġforward": 1705, "Mum": 1706, "lower": 1707, "Ġembarrassed": 1708, "Ġcarrots": 1709, "Ġsharing": 1710, "Ġdeterm": 1711, "Ġknocked": 1712, "ĠTeddy": 1713, "Ġwhis": 1714, "pit": 1715, "Ġalmost": 1716, "Ġlegs": 1717, "Ġemp": 1718, "Ġtightly": 1719, "Ġdisappoin": 1720, "Ġplate": 1721, "Ġtells": 1722, "gy": 1723, "Ġsplash": 1724, "Ġashamed": 1725, "Ġpillow": 1726, "Ġbreath": 1727, "Ġstu": 1728, "Ġveget": 1729, "Ġmeadow": 1730, "Sarah": 1731, "Ġsuccess": 1732, "airs": 1733, "Ġglow": 1734, "Ġempty": 1735, "Ġcarried": 1736, "ground": 1737, "Ġgas": 1738, "Ġnods": 1739, "wel": 1740, "Ġyelled": 1741, "Ġwhisp": 1742, "Ġint": 1743, "vous": 1744, "pital": 1745, "Ġhours": 1746, "Ġhospital": 1747, "Ġdisappointed": 1748, "hin": 1749, "Ġsparkly": 1750, "ĠPeter": 1751, "Ġnut": 1752, "Ġjewel": 1753, "Ġship": 1754, "lo": 1755, "Ġscarf": 1756, "Molly": 1757, "Ġfrust": 1758, "ĠEven": 1759, "olf": 1760, "Ġsighed": 1761, "Ġbedroom": 1762, "Ġplants": 1763, "Ġstanding": 1764, "Stop": 1765, "Ġchew": 1766, "Ġmountain": 1767, "kin": 1768, "Ġeasy": 1769, "Ġmysterious": 1770, "Ġdrew": 1771, "Jim": 1772, "Ġpizz": 1773, "Ġspicy": 1774, "Ġpuzzle": 1775, "Ġminutes": 1776, "Ġknowing": 1777, "pl": 1778, "Ġpolite": 1779, "Ġreturned": 1780, "Ġwood": 1781, "Ġsleepy": 1782, "Ġgroup": 1783, "usie": 1784, "Ġthankful": 1785, "Ġclass": 1786, "la": 1787, "Ġgrump": 1788, "Ġpowerful": 1789, "Ġnervous": 1790, "Ġnote": 1791, "pillar": 1792, "ĠZ": 1793, "ĠSt": 1794, "'d": 1795, "Ġfrustrated": 1796, "Ġwolf": 1797, "Ġdetermined": 1798, "Ġvan": 1799, "Be": 1800, "Ġpizza": 1801, "Ġsandwich": 1802, "osaur": 1803, "Ġyourself": 1804, "Ġgate": 1805, "Ġcaterpillar": 1806, "Ġgathered": 1807, "Ġcries": 1808, "Ġfancy": 1809, "Are": 1810, "Ġbridge": 1811, "Ġgrumpy": 1812, "Ġdinosaur": 1813, "Sorry": 1814, "Ġspo": 1815, "Ġblock": 1816, "Ġtears": 1817, "Ġprince": 1818, "Ġpin": 1819, "iving": 1820, "Ġlock": 1821, "Ġcrown": 1822, "ĠJohnny": 1823, "ĠRex": 1824, "selves": 1825, "issors": 1826, "Ġdrop": 1827, "Mama": 1828, "Ġhopping": 1829, "Ġugly": 1830, "ns": 1831, "Ġscissors": 1832, "iddle": 1833, "ensive": 1834, "cape": 1835, "Ġexpensive": 1836, "Ġmiddle": 1837, "Ġwagged": 1838, "itement": 1839, "Ġfil": 1840, "Ġexcitement": 1841, "Ġroar": 1842, "unk": 1843, "Ġleg": 1844, "Ġtie": 1845, "Ġtrue": 1846, "ual": 1847, "Jane": 1848, "Their": 1849, "Ġok": 1850, "Ġgets": 1851, "ĠAnn": 1852, "ete": 1853, "Ġvase": 1854, "Ġbrush": 1855, "Ġpig": 1856, "ĠLittle": 1857, "Ġspend": 1858, "Ġgiggled": 1859, "Ġmedic": 1860, "Ġmistake": 1861, "ord": 1862, "ĠLeo": 1863, "pecially": 1864, "Who": 1865, "Ġseek": 1866, "Ġcomfortable": 1867, "itty": 1868, "light": 1869, "Ġfruits": 1870, "Ġdancing": 1871, "Ġpolice": 1872, "als": 1873, "Joe": 1874, "Ġmedicine": 1875, "Ġespecially": 1876, "Ġtiger": 1877, "Ġsugar": 1878, "Ġcage": 1879, "Ġeggs": 1880, "Ġvegetables": 1881, "Ġsight": 1882, "Ġdrawing": 1883, "Ġdistance": 1884, "Ġflut": 1885, "Ġmatch": 1886, "Ġknight": 1887, "Ġlying": 1888, "Ġdisappeared": 1889, "Ġdrum": 1890, "Ġsweetie": 1891, "ts": 1892, "Ġchange": 1893, "Ġfeathers": 1894, "Ġmov": 1895, "Ġmoms": 1896, "lue": 1897, "Sp": 1898, "ĠIf": 1899, "Ġcross": 1900, "Ġbathroom": 1901, "Ġnod": 1902, "Ġincred": 1903, "Ġscream": 1904, "Ġexam": 1905, "irror": 1906, "Ġpray": 1907, "Ġbody": 1908, "Ġplayground": 1909, "Ġmirror": 1910, "Ġtape": 1911, "Ġnoisy": 1912, "Ġquestions": 1913, "Ġmic": 1914, "Me": 1915, "Ġfluffy": 1916, "Ġfamous": 1917, "Ġyours": 1918, "Ġskipped": 1919, "Ġballs": 1920, "Ġruined": 1921, "Ġelderly": 1922, "ĠTweet": 1923, "Ġweak": 1924, "Ġshows": 1925, "Ġsoap": 1926, "rote": 1927, "Ġwrote": 1928, "Ġcovered": 1929, "Ġincredible": 1930, "Ġjuicy": 1931, "Ġloyal": 1932, "Help": 1933, "ĠEnd": 1934, "Sally": 1935, "Ġrealised": 1936, "Ġoffered": 1937, "ĠBun": 1938, "Ġeye": 1939, "Ġdiscovered": 1940, "ique": 1941, "Ġdiffic": 1942, "Ġdig": 1943, "Ġextra": 1944, "Ġboys": 1945, "Ġadventurous": 1946, "iv": 1947, "Ġorganized": 1948, "Ġmeasure": 1949, "Ġcolourful": 1950, "ĠSusie": 1951, "Ġbottom": 1952, "Ġunique": 1953, "Ġbarn": 1954, "Ġpro": 1955, "Ġclown": 1956, "Ġdolp": 1957, "ĠMark": 1958, "Ġdifficult": 1959, "Ġcircle": 1960, "Ġonce": 1961, "act": 1962, "Ġjealous": 1963, "ĠBlue": 1964, "ork": 1965, "Ġgarage": 1966, "Ġknife": 1967, "cil": 1968, "Ġweird": 1969, "ĠBrown": 1970, "Ġunus": 1971, "Ġpencil": 1972, "Ġcrawled": 1973, "Ġberries": 1974, "ĠDan": 1975, "Ġslid": 1976, "Ġpointing": 1977, "Ġchase": 1978, "Spot": 1979, "Ġunusual": 1980, "Ġpie": 1981, "Sue": 1982, "ĠKitty": 1983, "Ġkindness": 1984, "Ġsaying": 1985, "Ġdizzy": 1986, "Ġisland": 1987, "How": 1988, "ĠToday": 1989, "Ġref": 1990, "Ġshake": 1991, "Ġspun": 1992, "Ġsoldier": 1993, "Ġsearch": 1994, "Ġfigure": 1995, "Amy": 1996, "Ġfavourite": 1997, "Ġlaughs": 1998, "Ġsword": 1999, "Ġgiving": 2000, "Ġsmoke": 2001, "Ġguitar": 2002, "Ġenjoying": 2003, "Ġears": 2004, "Ġalready": 2005, "Ġwrapped": 2006, "Ġstrawber": 2007, "Ġimpressed": 2008, "adow": 2009, "Ġthick": 2010, "Ġharm": 2011, "alk": 2012, "emo": 2013, "Ġedge": 2014, "ĠPete": 2015, "ers": 2016, "Ġboxes": 2017, "Ġloudly": 2018, "Ġhelps": 2019, "Ġwhale": 2020, "ilt": 2021, "Ġbrilliant": 2022, "Ġsnug": 2023, "appy": 2024, "Ġturtle": 2025, "Ġcab": 2026, "Ġbossy": 2027, "Ġshape": 2028, "Ġlib": 2029, "Ġescape": 2030, "enny": 2031, "Ġbirdie": 2032, "Ġvalu": 2033, "ail": 2034, "cient": 2035, "Ġcheerful": 2036, "Ġapolog": 2037, "Ġproudly": 2038, "Ġinvited": 2039, "Ġswan": 2040, "Ġhum": 2041, "Ġslipped": 2042, "Ġwrap": 2043, "arl": 2044, "Ġfalls": 2045, "fast": 2046, "Ġnews": 2047, "Ġfridge": 2048, "Ġdepend": 2049, "Ġancient": 2050, "Ġvaluable": 2051, "Ġmovie": 2052, "Ġbreakfast": 2053, "Ġstubborn": 2054, "Ġknows": 2055, "port": 2056, "Ġtrunk": 2057, "Ġcity": 2058, "ĠEllie": 2059, "Ġhappiness": 2060, "Ġcudd": 2061, "eor": 2062, "Ġfier": 2063, "Ġwalls": 2064, "ĠAlice": 2065, "Ġaccep": 2066, "Ġicy": 2067, "Ġfoolish": 2068, "Ġstudy": 2069, "less": 2070, "Ġnotice": 2071, "Ġkick": 2072, "Ġtools": 2073, "Ġcro": 2074, "Dad": 2075, "Ġobedient": 2076, "etit": 2077, "Ġuseful": 2078, "laimed": 2079, "Ġshells": 2080, "Ġsuccessful": 2081, "Ġdelicate": 2082, "Ġsuggested": 2083, "Ġdreams": 2084, "Ġexclaimed": 2085, "Ġmixed": 2086, "Ġcart": 2087, "Ġcompetit": 2088, "Ġgrandpa": 2089, "ÅĵLet": 2090, "Ġgoat": 2091, "Ġtrust": 2092, "eorge": 2093, "Ġoffice": 2094, "Ġjam": 2095, "Ġstove": 2096, "Ġegg": 2097, "Ġhorn": 2098, "Ġexcitedly": 2099, "Ġfierce": 2100, "cus": 2101, "Ġaunt": 2102, "Ġshowing": 2103, "Ġstumbled": 2104, "Ġangel": 2105, "Ġfountain": 2106, "Ġdependable": 2107, "Ġprint": 2108, "ĠFred": 2109, "Ġthemselves": 2110, "ĠMrs": 2111, "Ġscrat": 2112, "Ġresc": 2113, "Ġfragile": 2114, "Ġshadow": 2115, "Ġabove": 2116, "ormous": 2117, "Ġroof": 2118, "Ġwitch": 2119, "dom": 2120, "Ġadmired": 2121, "Ġenormous": 2122, "ĠRose": 2123, "vice": 2124, "Ġunlo": 2125, "arry": 2126, "Ġbrightly": 2127, "Ġrode": 2128, "ĠU": 2129, "Billy": 2130, "Ġzip": 2131, "Ġspinning": 2132, "Ġpractice": 2133, "Ġumb": 2134, "Ġspoiled": 2135, "Ġplayful": 2136, "ment": 2137, "ĠNemo": 2138, "Ġclock": 2139, "Ġbitter": 2140, "Jimmy": 2141, "corn": 2142, "Ġusing": 2143, "Ġbuilt": 2144, "Al": 2145, "Ġindependent": 2146, "Ġsniff": 2147, "Ġreminded": 2148, "Ġhelm": 2149, "Ġnur": 2150, "Ġchir": 2151, "unnel": 2152, "Ġtunnel": 2153, "dge": 2154, "Ġthoughtful": 2155, "Ġcostum": 2156, "Ġparrot": 2157, "Ġeng": 2158, "Ġsuit": 2159, "Ġwhispered": 2160, "nown": 2161, "Ġsolve": 2162, "Ġpumpkin": 2163, "Ġsunf": 2164, "Ġshark": 2165, "Em": 2166, "Ġtummy": 2167, "Ġdove": 2168, "Ġreliable": 2169, "Ġallowed": 2170, "Ġbounce": 2171, "Ġpopcorn": 2172, "iew": 2173, "Ġoriginal": 2174, "Ġhalf": 2175, "med": 2176, "Ġgasped": 2177, "ti": 2178, "Ġunknown": 2179, "lies": 2180, "arn": 2181, "Ġmetal": 2182, "Ġhammer": 2183, "ÅĵYes": 2184, "ye": 2185, "Ġclum": 2186, "Ġview": 2187, "Ġdolphin": 2188, "See": 2189, "ĠGrandpa": 2190, "Ġstrug": 2191, "Ġleaving": 2192, "Ġfinding": 2193, "Ġterrible": 2194, "Ġbarber": 2195, "Ġdoesn": 2196, "Ġdiam": 2197, "ipop": 2198, "dern": 2199, "Ġwealthy": 2200, "Ġthose": 2201, "Ġyarn": 2202, "hetti": 2203, "Ġpotato": 2204, "Ġbeak": 2205, "Ġlollipop": 2206, "Ġstat": 2207, "Ġguilty": 2208, "Ġadvice": 2209, "cod": 2210, "Ġimpress": 2211, "Ġmodern": 2212, "Grand": 2213, "Ġpirate": 2214, "Ġclumsy": 2215, "Ġguard": 2216, "ugged": 2217, "Ġstupid": 2218, "ang": 2219, "ess": 2220, "Ġstairs": 2221, "Ġsleeping": 2222, "Ġtoast": 2223, "uper": 2224, "Ġcover": 2225, "Ġspaghetti": 2226, "ĠDave": 2227, "Ġumbrella": 2228, "ÅĵWhat": 2229, "ĠDucky": 2230, "keeper": 2231, "asing": 2232, "Jill": 2233, "Ġsink": 2234, "Ġingred": 2235, "erry": 2236, "Ġcrocod": 2237, "Ġarrow": 2238, "Ġzeb": 2239, "Ġstage": 2240, "fish": 2241, "hie": 2242, "Ġmarch": 2243, "ĠMandy": 2244, "Ġweek": 2245, "Ġjacket": 2246, "Ġpatch": 2247, "ĠFin": 2248, "Ġmissing": 2249, "Ġgraceful": 2250, "Ġcarrying": 2251, "Go": 2252, "Ġpean": 2253, "Ġpopular": 2254, "ject": 2255, "Ġdull": 2256, "Ġdriving": 2257, "Ġshocked": 2258, "Ġregular": 2259, "âĤ¬âĢ": 2260, "Ġfriendship": 2261, "Ġspe": 2262, "Ġimpressive": 2263, "Ġthirsty": 2264, "Ġtruth": 2265, "Ġchar": 2266, "Ġcrazy": 2267, "Ġsparkled": 2268, "Ġhandle": 2269, "Ġending": 2270, "Ġengine": 2271, "Ġnature": 2272, "Ġheal": 2273, "Ġwheels": 2274, "Ġstops": 2275, "Ġcryst": 2276, "Ġimagined": 2277, "Ġpatter": 2278, "Ġflexible": 2279, "Ġsudden": 2280, "Ġmeal": 2281, "Ġingredients": 2282, "Ġpengu": 2283, "Ġenvelop": 2284, "Ġenthus": 2285, "Ġpeeked": 2286, "Ġlibrary": 2287, "Ġsurf": 2288, "Ġreading": 2289, "Ġspilled": 2290, "ÅĵLetÃ¢": 2291, "Ġscale": 2292, "Ow": 2293, "Ġdiamond": 2294, "Ġprize": 2295, "Ġmailbox": 2296, "Ġbutterflies": 2297, "Ġwindows": 2298, "Ġsadly": 2299, "Ġthunder": 2300, "bs": 2301, "Ġflute": 2302, "Ġstatue": 2303, "Ġnurse": 2304, "Ġflashlight": 2305, "ĠWhile": 2306, "Ġahead": 2307, "Ġearth": 2308, "Ġcrocodile": 2309, "Ġeas": 2310, "Ġintell": 2311, "Ġavo": 2312, "Ġbadly": 2313, "Ġhumble": 2314, "Ġanx": 2315, "illie": 2316, "Ġsof": 2317, "Ġgh": 2318, "Ġjumps": 2319, "Ġcheap": 2320, "Ġstamp": 2321, "ĠKim": 2322, "ĠcouldnÃ¢": 2323, "Yay": 2324, "Ġenv": 2325, "Ġgrowing": 2326, "Ġsofa": 2327, "Ġsuper": 2328, "Ġanxious": 2329, "Ġcupboard": 2330, "Ġscat": 2331, "Ġuncom": 2332, "Ġharmless": 2333, "Ġturkey": 2334, "Ġcereal": 2335, "Ġuncomfortable": 2336, "Ġpersistent": 2337, "Ġcelebrate": 2338, "Ġperm": 2339, "While": 2340, "Ġsunflower": 2341, "ĠGeorge": 2342, "Ġpretending": 2343, "ĠGive": 2344, "ĠLola": 2345, "Ġdesk": 2346, "Ġcrane": 2347, "Ġpian": 2348, "Ġvi": 2349, "Ġbeg": 2350, "Ġhung": 2351, "Ġoctop": 2352, "Ġcomputer": 2353, "Ġuncle": 2354, "io": 2355, "Ġpiano": 2356, "Mary": 2357, "Ġcharming": 2358, "To": 2359, "Ġshut": 2360, "ĠMike": 2361, "ĠPat": 2362, "Ġneat": 2363, "Ġsnuggled": 2364, "cream": 2365, "Ġchasing": 2366, "Ġdeaf": 2367, "Ġdrawer": 2368, "Ġlizard": 2369, "Ġoctopus": 2370, "Ġph": 2371, "Ġtwirled": 2372, "Ġcrystal": 2373, "Ġordinary": 2374, "gie": 2375, "Ġenvelope": 2376, "Ġhunter": 2377, "Ġpigeon": 2378, "Ġcrawl": 2379, "Ġyaw": 2380, "Ġneighbour": 2381, "Ġpip": 2382, "Ġintelligent": 2383, "ĠBill": 2384, "Ġspring": 2385, "Ġmiserable": 2386, "Ġthief": 2387, "Ġdesign": 2388, "Ġshaking": 2389, "Ġcamp": 2390, "Ġscreen": 2391, "Ġalert": 2392, "Daisy": 2393, "Ġreturn": 2394, "ĠJoey": 2395, "Ġleash": 2396, "Ġskip": 2397, "Ġhurry": 2398, "Ġneedle": 2399, "Ġcomb": 2400, "Ġbandage": 2401, "Ġhelmet": 2402, "ÅĵThat": 2403, "Ġzebra": 2404, "Ġanywhere": 2405, "arlie": 2406, "Ġignorant": 2407, "Give": 2408, "Ġpackage": 2409, "Ġcompassionate": 2410, "Ġdug": 2411, "Ġmushroom": 2412, "Ġchubby": 2413, "ĠEventually": 2414, "aid": 2415, "Ġsquash": 2416, "Ġgiraff": 2417, "Ġsquare": 2418, "work": 2419, "Ġstretched": 2420, "Ġbicy": 2421, "ĠPolly": 2422, "Ġcarpet": 2423, "Ġghost": 2424, "Ġdistur": 2425, "If": 2426, "Ġrepe": 2427, "Ġpressed": 2428, "ccol": 2429, "Ġrespectful": 2430, "Ġradio": 2431, "ĠSm": 2432, "ccoli": 2433, "ĠBrownie": 2434, "Ġattractive": 2435, "ummer": 2436, "Ġcrack": 2437, "Ġnobody": 2438, "Ġsteps": 2439, "Ġanyway": 2440, "igator": 2441, "Ġaftern": 2442, "coa": 2443, "Ġstirred": 2444, "Ġsomewhere": 2445, "Ġfurther": 2446, "Ġpasta": 2447, "Ġfearful": 2448, "Ġquar": 2449, "Ġcube": 2450, "Ġdisgusting": 2451, "Ġmask": 2452, "Ġcandle": 2453, "cad": 2454, "Ġadorable": 2455, "ĠSh": 2456, "Ġafternoon": 2457, "Ġalligator": 2458, "Ġbroccoli": 2459, "Ġshr": 2460, "Ġcocoa": 2461, "Ġenthusiastic": 2462, "ince": 2463, "Ġpipe": 2464, "Ġscrew": 2465, "Ġhipp": 2466, "Ġgiggle": 2467, "Once": 2468, "Ġdistant": 2469, "Ġsweetheart": 2470, "Ġsoar": 2471, "Ġsplit": 2472, "Ġsandbox": 2473, "Ġcase": 2474, "Ġmonkeys": 2475, "Ġrestaurant": 2476, "Ġmeow": 2477, "Ġshoe": 2478, "Ġenvious": 2479, "Ġpepper": 2480, "Ġclub": 2481, "can": 2482, "Ġpoem": 2483, "cut": 2484, "Ġostrich": 2485, "Ġbathtub": 2486, "Ġkang": 2487, "Ġcricket": 2488, "ĠWould": 2489, "Ġleopard": 2490, "Ġharsh": 2491, "Ġtrumpet": 2492, "case": 2493, "ĠSnow": 2494, "Bye": 2495, "Ġhelicop": 2496, "ĠEverything": 2497, "Ġhappier": 2498, "Ġstretch": 2499, "Ġsummer": 2500, "Ġcountry": 2501, "Ġjellyfish": 2502, "Ġpaws": 2503, "Ġbicycle": 2504, "Ġpulls": 2505, "Ġmessage": 2506, "Ġcows": 2507, "Ġadmire": 2508, "Ġsize": 2509, "Ġmodest": 2510, "Ġviolin": 2511, "Ġsweater": 2512, "ĠdidnÃ¢": 2513, "Ġpurse": 2514, "Ġfive": 2515, "ĠSophie": 2516, "imi": 2517, "Everyone": 2518, "Ġforgave": 2519, "Ġmill": 2520, "Ġorganize": 2521, "hood": 2522, "Ġwheat": 2523, "oppy": 2524, "iskers": 2525, "Ġperform": 2526, "Ġbehave": 2527, "Ġrescue": 2528, "Ġhippo": 2529, "Ġbin": 2530, "Ġthread": 2531, "ĠUn": 2532, "Ġsalt": 2533, "ilver": 2534, "ung": 2535, "Ġdessert": 2536, "Ġmicrop": 2537, "Ġrecogn": 2538, "Ġmagnet": 2539, "cano": 2540, "Ġchalk": 2541, "Ġdust": 2542, "cope": 2543, "Ġprov": 2544, "Ġotter": 2545, "Grandma": 2546, "Ġeither": 2547, "Ġhelicopter": 2548, "Ġpilot": 2549, "Ġcact": 2550, "Ġobject": 2551, "Ġlightning": 2552, "Ġbarrel": 2553, "Ġriding": 2554, "Ġmuseum": 2555, "Ġamb": 2556, "Ġmicrophone": 2557, "ĠJerry": 2558, "Ġvolcano": 2559, "Ġslipp": 2560, "Ġenergy": 2561, "Ġmeat": 2562, "ogurt": 2563, "Ġkangaroo": 2564, "Ġsteal": 2565, "Alice": 2566, "Ġluck": 2567, "Ġrod": 2568, "Ġknock": 2569, "ĠRed": 2570, "Ġshopkeeper": 2571, "ffee": 2572, "Ġsoftly": 2573, "Ġwire": 2574, "ĠPaul": 2575, "Ġyogurt": 2576, "Ġsilver": 2577, "ĠWill": 2578, "Ġcactus": 2579, "Ġspirit": 2580, "Ġshade": 2581, "Ġcolours": 2582, "Ġavocad": 2583, "vator": 2584, "Ġlearnt": 2585, "ills": 2586, "Ġalive": 2587, "Ġsmells": 2588, "Ġpebble": 2589, "Ġbears": 2590, "Ġhive": 2591, "Ġelevator": 2592, "Ġpenguin": 2593, "Ġshovel": 2594, "Ġstack": 2595, "Ġcostume": 2596, "Ġsock": 2597, "aggie": 2598, "ÅĵYou": 2599, "Ġhadn": 2600, "Ġgrapes": 2601, "An": 2602, "Ġbackpack": 2603, "Ġfilm": 2604, "Ġunh": 2605, "llie": 2606, "Ġmild": 2607, "Ġtaxi": 2608, "Ġputting": 2609, "Ġporch": 2610, "Ġambulance": 2611, "Ġpanda": 2612, "Ġaeroplane": 2613, "Ġsandc": 2614, "Ġlaundry": 2615, "Ġsprink": 2616, "Ġclapping": 2617, "Ġgoal": 2618, "Ġnotebook": 2619, "ĠBuddy": 2620, "Ġexperien": 2621, "ĠdonÃ¢": 2622, "Ġcomfort": 2623, "ips": 2624, "Ġchain": 2625, "Ġmedal": 2626, "Ġcoffee": 2627, "Ġpr": 2628, "Ġleaned": 2629, "Ġclimbing": 2630, "Ġapologized": 2631, "Ġairport": 2632, "lu": 2633, "Ġcardboard": 2634, "we": 2635, "Ġmotorcy": 2636, "Ġreindeer": 2637, "Ġgro": 2638, "Ġbasketball": 2639, "Ġhaircut": 2640, "ĠSmith": 2641, "Ġtube": 2642, "Ġtask": 2643, "Ġsteak": 2644, "ait": 2645, "Ġpolish": 2646, "Ġyacht": 2647, "ĠPapa": 2648, "Ġshrimp": 2649, "ĠWhiskers": 2650, "Ġavailable": 2651, "hino": 2652, "Ġshouldn": 2653, "Ġunhappy": 2654, "ĠSandy": 2655, "Ġdrops": 2656, "Ġjudge": 2657, "body": 2658, "oga": 2659, "Ġtrophy": 2660, "Ġsoil": 2661, "Ġwife": 2662, "Ġmagaz": 2663, "Ġperfectly": 2664, "Ġdive": 2665, "aulif": 2666, "Ġhoping": 2667, "Ġimagine": 2668, "ĠBunny": 2669, "Ġcups": 2670, "Ġminute": 2671, "Ġvendor": 2672, "Ġswitch": 2673, "âĤ¬âĢľ": 2674, "Ġresist": 2675, "Ġonion": 2676, "Ġinclu": 2677, "Ġwool": 2678, "Ġtwist": 2679, "ĠPe": 2680, "nit": 2681, "Ġrhino": 2682, "niture": 2683, "Ġtwig": 2684, "Ġcaulif": 2685, "Ġmixer": 2686, "ĠCharlie": 2687, "Ġfurniture": 2688, "Ġwinter": 2689, "Ġstuffed": 2690, "Ġmechanic": 2691, "Ġbetween": 2692, "uzz": 2693, "Ġskull": 2694, "Ġswung": 2695, "Ġeagerly": 2696, "ĠTr": 2697, "ccer": 2698, "Ġthrows": 2699, "Ġjournal": 2700, "Ġfootball": 2701, "Ġvideo": 2702, "osie": 2703, "gth": 2704, "Ġcauliflower": 2705, "ĠTed": 2706, "Ġtwink": 2707, "Ġchirp": 2708, "Ġsoccer": 2709, "Ġspeak": 2710, "Ġhotel": 2711, "Ġseeing": 2712, "ĠOr": 2713, "Ġpeek": 2714, "Ġsym": 2715, "Ġburn": 2716, "Ġdiary": 2717, "Jenny": 2718, "chor": 2719, "Ġchur": 2720, "ĠHenry": 2721, "Ġblowing": 2722, "Ġhut": 2723, "Ġgiraffe": 2724, "ĠMimi": 2725, "run": 2726, "oe": 2727, "Ġpoints": 2728, "Ġflea": 2729, "Ġmotorcycle": 2730, "Ġchurch": 2731, "ĠGod": 2732, "Ġoil": 2733, "Ġyoga": 2734, "Ġgather": 2735, "Ġtuna": 2736, "Ġsymbol": 2737, "Ġtemple": 2738, "Ġanchor": 2739, "Ġwipe": 2740, "Ġforgotten": 2741, "Ġunlock": 2742, "Ġslept": 2743, "ĠAnnie": 2744, "ĠLilly": 2745, "ĠDanny": 2746, "Ġtug": 2747, "Ġglove": 2748, "Ġargue": 2749, "ĠJess": 2750, "Ġweather": 2751, "ĠIÃ¢": 2752, "ac": 2753, "rod": 2754, "Ġreve": 2755, "Ġpoint": 2756, "Ġcurtain": 2757, "Ġgrin": 2758, "Ġpeach": 2759, "Ġreg": 2760, "Ġig": 2761, "Ġintrod": 2762, "Ġbreeze": 2763, "Ġpowder": 2764, "Ġpetals": 2765, "Ġsir": 2766, "Ġsquirrels": 2767, "ĠGrace": 2768, "nie": 2769, "Ġimagination": 2770, "Ġdisplay": 2771, "Ġbattery": 2772, "Ġphoto": 2773, "ĠMillie": 2774, "Ġcabin": 2775, "ĠMaria": 2776, "Ġrhinoceros": 2777, "Ġaxe": 2778, "rib": 2779, "Ġtutor": 2780, "Ġstrength": 2781, "Ġbaseball": 2782, "ĠBaby": 2783, "Ġdeliver": 2784, "Ġglowing": 2785, "Ġsniffed": 2786, "chair": 2787, "Ġcushion": 2788, "Ġsub": 2789, "Ġfisherman": 2790, "Ġceiling": 2791, "Ch": 2792, "Ġigloo": 2793, "Event": 2794, "Ġcalls": 2795, "Ġkingdom": 2796, "Eventually": 2797, "Ġbouncing": 2798, "Ġdoors": 2799, "Ġcherries": 2800, "Ġhockey": 2801, "Ġpeanut": 2802, "Ġskirt": 2803, "Ġnapkin": 2804, "ĠitÃ¢": 2805, "Ġdiscus": 2806, "Ġmarble": 2807, "Ġagree": 2808, "Ġstaff": 2809, "Ġload": 2810, "Ġsunglasses": 2811, "Ġtheater": 2812, "Ġradish": 2813, "Ġbulb": 2814, "Ġzipper": 2815, "Ġslippery": 2816, "Ġpistol": 2817, "Ġarmchair": 2818, "Ġquietly": 2819, "Ġvroom": 2820, "Ġsticky": 2821, "mediately": 2822, "ĠInstead": 2823, "Ġmatt": 2824, "Ġnovel": 2825, "Ġsuff": 2826, "Ġtoilet": 2827, "Wait": 2828, "sible": 2829, "Ġthrowing": 2830, "ĠSu": 2831, "Ġunif": 2832, "ĠKate": 2833, "Ġfreezer": 2834, "Ġmystery": 2835, "Qu": 2836, "Ġuniform": 2837, "Ġweigh": 2838, "ĠHarry": 2839, "erc": 2840, "Ġmicros": 2841, "Ġreef": 2842, "Ġveil": 2843, "Ġavocado": 2844, "Ġmagazine": 2845, "Ġinvestigate": 2846, "Ġwriting": 2847, "Ġaccepted": 2848, "Ġoyster": 2849, "Ġlawyer": 2850, "Ġcobwe": 2851, "Ġcreek": 2852, "Ġmicroscope": 2853, "Ġshrugged": 2854, "ÅĵItÃ¢": 2855, "Ġmattress": 2856, "Ġdiscover": 2857, "Ġdishw": 2858, "Ġclassroom": 2859, "Ġdisappear": 2860, "Ġfollows": 2861, "Ġalarm": 2862, "Ġiron": 2863, "Ġignored": 2864, "Ġchim": 2865, "Ġquarrel": 2866, "Little": 2867, "Ġcrib": 2868, "Ġdishwasher": 2869, "house": 2870, "Ġoffer": 2871, "ĠRosie": 2872, "Ġexerc": 2873, "Ġtub": 2874, "ĠNext": 2875, "Emma": 2876, "Ġvalley": 2877, "Ġregret": 2878, "Next": 2879, "Ġchimney": 2880, "Ġchoice": 2881, "Ġapart": 2882, "Ġmakeup": 2883, "Ġtucked": 2884, "Ġwardrobe": 2885, "berries": 2886, "Ġrooms": 2887, "Ġmissile": 2888, "Ġbeef": 2889, "Ġjewelry": 2890, "Ġsince": 2891, "Ġeasily": 2892, "Ġpattern": 2893, "Ġblinked": 2894, "Ġoak": 2895, "Ġbean": 2896, "Ġkayak": 2897, "Ġconf": 2898, "Ġclaws": 2899, "Ġkeeping": 2900, "Ġunpack": 2901, "Ġappro": 2902, "Ġnewspaper": 2903, "Ġmusician": 2904, "Ġtelephone": 2905, "Ġopera": 2906, "Ġdictionary": 2907, "Because": 2908, "Ġbirdc": 2909, "mm": 2910, "Ġlanguage": 2911, "vis": 2912, "Ġaccept": 2913, "Ġmodel": 2914, "Ġremind": 2915, "Ġbirdcage": 2916, "Ġrazor": 2917, "Ġgym": 2918, "Ġinf": 2919, "Ġletting": 2920, "Ġsqueezed": 2921, "Ġsigh": 2922, "Ġlawn": 2923, "Ġsneak": 2924, "Ġbookcase": 2925, "Ġincre": 2926, "Ġstraight": 2927, "Ġmustache": 2928, "Ġpill": 2929, "Ġhelper": 2930, "Ġsubway": 2931, "gling": 2932, "Ġblueberries": 2933, "umb": 2934, "Ġstable": 2935, "Ġpinch": 2936, "vision": 2937, "Ġperfume": 2938, "Ġveh": 2939, "ĠJul": 2940, "Is": 2941, "Ġserve": 2942, "ĠTrue": 2943, "Ġbookshelf": 2944, "Ġattach": 2945, "Ġcliff": 2946, "Ġwaste": 2947, "Ġsneeze": 2948, "Ġsqueeze": 2949, "Ġmint": 2950, "ĠJames": 2951, "Ġgrowled": 2952, "ampoo": 2953, "Ġmosquito": 2954, "Ġyucky": 2955, "Ġfollowing": 2956, "Ġholiday": 2957, "ĠClara": 2958, "Ġworms": 2959, "Ġtelevision": 2960, "Ġmuffin": 2961, "ups": 2962, "Ġexperience": 2963, "ah": 2964, "âĤ¬.": 2965, "uckily": 2966, "ĠSnowy": 2967, "Ġgrill": 2968, "alendar": 2969, "Ġisn": 2970, "Ġcalendar": 2971, "Ġshampoo": 2972, "fortunately": 2973, "Ġtornad": 2974, "Ġpastry": 2975, "Ġcrash": 2976, "ib": 2977, "Ġwarmth": 2978, "Ġmarried": 2979, "ĠSte": 2980, "Ġinvite": 2981, "Ġsandcastle": 2982, "Ġfiref": 2983, "Ġautomob": 2984, "Ġalright": 2985, "Ġimprove": 2986, "Ġrelaxed": 2987, "Did": 2988, "Ġbegged": 2989, "Ġtornado": 2990, "Ġskills": 2991, "Ġpastel": 2992, "night": 2993, "Ġunderstanding": 2994, "ĠAb": 2995, "ĠZoe": 2996, "Ġbeamed": 2997, "Ġart": 2998, "ĠKing": 2999, "Mr": 3000, "Ġrefrigerator": 3001, "ĠMiss": 3002, "cakes": 3003, "Ġraise": 3004, "Will": 3005, "Ok": 3006, "ĠMaggie": 3007, "Ġstruct": 3008, "Ġweap": 3009, "Ġapron": 3010, "Ġmyself": 3011, "Ġquiz": 3012, "Today": 3013, "Ġignore": 3014, "!'": 3015, "Ġharbor": 3016, "Ġashtray": 3017, "'ve": 3018, "Ġwhip": 3019, "Ġvanished": 3020, "Welcome": 3021, "Ġfestival": 3022, "Ġcaptain": 3023, "Ġblackboard": 3024, "xy": 3025, "Yuck": 3026, "Ġsteam": 3027, "Ġornament": 3028, "Ġvac": 3029, "ĠMay": 3030, "Ġdestroy": 3031, "Ġjewels": 3032, "ÅĵNo": 3033, "asis": 3034, "ission": 3035, "ĠTina": 3036, "Ġinsisted": 3037, "Ġreceived": 3038, "Ġoasis": 3039, "Ġjail": 3040, "Ġpermission": 3041, "Ġscattered": 3042, "Ġbill": 3043, "Ġdisturb": 3044, "Ġspending": 3045, "isdom": 3046, "Ġbuckle": 3047, "Ġsparkling": 3048, "ĠPeople": 3049, "Ġsim": 3050, "Ġyawned": 3051, "Ġcham": 3052, "Ġsucceed": 3053, "Ġdried": 3054, "Ġsettled": 3055, "Ġremove": 3056, "Ġguy": 3057, "ĠHave": 3058, "Ġcuddled": 3059, "Ġdaisy": 3060, "inky": 3061, "Ġencouraged": 3062, "With": 3063, "Ġbuzzing": 3064, "Ġchirping": 3065, "Ġhardly": 3066, "Ġchamber": 3067, "ĠBefore": 3068, "Ġsparkle": 3069, "Ġsuperhero": 3070, "igail": 3071, "Ġautomobile": 3072, "Ġpraised": 3073, "Ġfastest": 3074, "Ġwaffle": 3075, "Ġpatiently": 3076, "Ġcheek": 3077, "Ġglit": 3078, "Ġbathrobe": 3079, "antly": 3080, "itation": 3081, "Ġdifferen": 3082, "Ġdeeper": 3083, "Ġstruggling": 3084, "ĠMar": 3085, "avid": 3086, "Ġpassport": 3087, "Ġrhy": 3088, "Ġappreciate": 3089, "izard": 3090, "ĠEach": 3091, "Ġcrun": 3092, "St": 3093, "Ġcobweb": 3094, "Ġthrilled": 3095, "Ġsurrender": 3096, "Ġapproached": 3097, "Ġdare": 3098, "Ġpunish": 3099, "Ġworse": 3100, "Ġwhisper": 3101, "Ġprevent": 3102, "Ġdiscuss": 3103, "Ġproper": 3104, "Mmm": 3105, "Ġstructure": 3106, "Ġsetting": 3107, "Ġinfant": 3108, "Ġsausage": 3109, "Ġvacation": 3110, "Ġtherm": 3111, "Mandy": 3112, "Ġpillows": 3113, "ium": 3114, "Ġheat": 3115, "Ġspoil": 3116, "Ġmitten": 3117, "Ġairplane": 3118, "Ġexamine": 3119, "ĠOllie": 3120, "Ġuniverse": 3121, "Ġplays": 3122, "Ġprovide": 3123, "Ġupstairs": 3124, "Sh": 3125, "Ġwizard": 3126, "Ġgrey": 3127, "!\",": 3128, "Ġgrinned": 3129, "Ġfixing": 3130, "Emily": 3131, "Ġfloated": 3132, "ĠEveryday": 3133, "iversity": 3134, "Ġbillboard": 3135, "Ġthumb": 3136, "Ġthermometer": 3137, "thm": 3138, "Ġsprinkles": 3139, "'.": 3140, "Ġchallen": 3141, "Ġbatter": 3142, "Ġvehicle": 3143, "Ġfuture": 3144, "Ġfloating": 3145, "Ġyield": 3146, "Ġsupposed": 3147, "Ġpoison": 3148, "Ġgirls": 3149, "ĠBuzz": 3150, "ember": 3151, "Ġneighborhood": 3152, "Ġmailman": 3153, "Ġranch": 3154, "Ġrhythm": 3155, "Ġduring": 3156, "Ġfasc": 3157, "Ġmassage": 3158, "Ġjazz": 3159, "emember": 3160, "Ġactually": 3161, "Ġsunrise": 3162, "Ġurge": 3163, "Ġleak": 3164, "ĠRo": 3165, "ÅĵIÃ¢": 3166, "Ġwisdom": 3167, "Re": 3168, "Ġweapon": 3169, "Ġsurrounded": 3170, "Ġteasp": 3171, "ĠLiz": 3172, "Ġpermit": 3173, "Would": 3174, "irp": 3175, "Ġscratch": 3176, "fy": 3177, "Ġuniversity": 3178, "Lisa": 3179, "Ġgrape": 3180, "adium": 3181, "Ġstadium": 3182, "Ġgrowl": 3183, "gage": 3184, "ĠV": 3185, "Peter": 3186, "Ġdifference": 3187, "Ġluggage": 3188, "Ġtwirl": 3189, "Ġcurled": 3190, "ĠMilly": 3191, "Ġhurricane": 3192, "Ġexercise": 3193, "Ġobserve": 3194, "Ġsunlight": 3195, "Ġequ": 3196, "Ġdecision": 3197, "ÅĵThatÃ¢": 3198, "ĠRuby": 3199, "Ġtorn": 3200, "Ġscur": 3201, "Ġproblems": 3202, "Ġslice": 3203, "Ġsip": 3204, "Ġx": 3205, "ĠSomeone": 3206, "Ġadmiring": 3207, "ĠPoppy": 3208, "Ex": 3209, "Ġpossible": 3210, "Ġteaspoon": 3211, "atch": 3212, "ipment": 3213, "Ġinvitation": 3214, "Ġsliding": 3215, "Ġequipment": 3216, "..": 3217, "Ġsidew": 3218, "Ġpetted": 3219, "Ġwhistling": 3220, "ĠSpike": 3221, "Ġjogging": 3222, "Ġkindly": 3223, "Ġcontinue": 3224, "ĠRachel": 3225, "Ġreceive": 3226, "Ġsidewalk": 3227, "ĠSteve": 3228, "Ġhesit": 3229, "ĠHop": 3230, "Ġdoggy": 3231, "mother": 3232, "Jake": 3233, "Ġgrocery": 3234, "Ġskipping": 3235, "Yum": 3236, "Ġoverjoyed": 3237, "Ġstud": 3238, "Ġgotten": 3239, "Ġshiver": 3240, "Before": 3241, "Ġours": 3242, "Mark": 3243, "Le": 3244, "amie": 3245, "ĠLetÃ¢": 3246, "Ġnavy": 3247, "Ġearthqu": 3248, "ÅĵThank": 3249, "Ġflavor": 3250, "Ġcopper": 3251, "igz": 3252, "ĠKatie": 3253, "ĠCo": 3254, "Ġhappiest": 3255, "Ġoat": 3256, "ĠCat": 3257, "Ġonwards": 3258, "Ġrepeat": 3259, "reat": 3260, "Ġsatisf": 3261, "Ġhurried": 3262, "ĠLuna": 3263, "\",": 3264, "seek": 3265, "Ġsafari": 3266, "asuring": 3267, "Really": 3268, "Ġscreams": 3269, "Ouch": 3270, "Ġdisagreed": 3271, "Ha": 3272, "Ġrefreshed": 3273, "Ġrevealed": 3274, "Ġexact": 3275, "Ġcrunchy": 3276, "ĠSharing": 3277, "Ġeagle": 3278, "Ġfloat": 3279, "Moral": 3280, "ĠSad": 3281, "Ġcomfy": 3282, "Ġmeasuring": 3283, "oof": 3284, "Ġmenu": 3285, "ÅĵWe": 3286, "Ġrecognized": 3287, "Ġdinosaurs": 3288, "xygen": 3289, "Ġgain": 3290, "Ġaccom": 3291, "Ġeasier": 3292, "Ġsnowball": 3293, "Ġcrept": 3294, "ĠQu": 3295, "Ġslip": 3296, "Ġolive": 3297, "oors": 3298, "Ġsettle": 3299, "ĠChirp": 3300, "ĠAbigail": 3301, "Ġswims": 3302, "ĠFrank": 3303, "Ġanytime": 3304, "Ġcuddle": 3305, "ĠDavid": 3306, "Ġearthquake": 3307, "Susie": 3308, "Ġaccompl": 3309, "Ġnetwork": 3310, "zing": 3311, "Ġapologize": 3312, "Ġcutting": 3313, "Ġvelvet": 3314, "Ġeveryday": 3315, "Ġwaist": 3316, "Ġspaceship": 3317, "Ġscatter": 3318, "utty": 3319, "Ġzigz": 3320, "Ġappear": 3321, "Ġherb": 3322, "Ġresponsible": 3323, "Ġbeat": 3324, "Ġshopping": 3325, "Ġexactly": 3326, "Ġlandscape": 3327, "Ġitems": 3328, "Ġmouths": 3329, "ÅĵCan": 3330, "Ġrecommend": 3331, "Ġladyb": 3332, "Ġpupil": 3333, "Ġshadows": 3334, "Ġtraffic": 3335, "Ġsimple": 3336, "ĠEl": 3337, "Ġbeneath": 3338, "Ġrequest": 3339, "Ġchef": 3340, "Ġtemp": 3341, "Luckily": 3342, "ĠSunny": 3343, "Ġoutd": 3344, "Ġcircus": 3345, "Ġstyle": 3346, "Ġoxygen": 3347, "Ġtremble": 3348, "Ġlecture": 3349, "Ġdoctors": 3350, "Ġfascinated": 3351, "Ġbleeding": 3352, "Ġleather": 3353, "ĠSuzy": 3354, "Ġsoak": 3355, "Ġdownstairs": 3356, "Ġunderground": 3357, "Ġstripes": 3358, "Ġsew": 3359, "Ġsuffer": 3360, "Ġgrandmother": 3361, "Ġcuriosity": 3362, "Ġdied": 3363, "Jen": 3364, "Ġnails": 3365, "Ġinstr": 3366, "Ġrecognize": 3367, "ĠJe": 3368, "ÅĵDon": 3369, "ĠFirst": 3370, "inda": 3371, "Ġfreeze": 3372, "Ġsadness": 3373, "Ġblueberry": 3374, "ĠItÃ¢": 3375, "ud": 3376, "ĠUncle": 3377, "ĠOl": 3378, "Un": 3379, "Ġstudied": 3380, "First": 3381, "Ġstruggled": 3382, "Ġsitu": 3383, "Ġfiremen": 3384, "Ġvegetable": 3385, "Ġplanned": 3386, "Ġarea": 3387, "ĠNutty": 3388, "Ġfetch": 3389, "Ġwagging": 3390, "Ġincrease": 3391, "Ġstirring": 3392, "ik": 3393, "Ġtune": 3394, "Ġzigzag": 3395, "Ġbunnies": 3396, "Ġunderneath": 3397, "Ġkeys": 3398, "Ġjogged": 3399, "Ġwinning": 3400, "Ġproperly": 3401, "Ġoutdoors": 3402, "Fluffy": 3403, "ĠChirpy": 3404, "Ġrealize": 3405, "Ġdef": 3406, "Ġsix": 3407, "Or": 3408, "Ġbegin": 3409, "Ġsatisfied": 3410, ".'": 3411, "Ġexit": 3412, "Ġdraws": 3413, "Ġchallenge": 3414, "ayla": 3415, "Ġmixing": 3416, "Ġpancakes": 3417, "Johnny": 3418, "Ġneighbourhood": 3419, "Ġann": 3420, "dam": 3421, "Ġwreck": 3422, "ĠLucky": 3423, "Ġwinner": 3424, "oh": 3425, "Ġinstructions": 3426, "ĠLike": 3427, "uke": 3428, "pected": 3429, "Ġpears": 3430, "ĠAm": 3431, "Ġscr": 3432, "Ġintroduce": 3433, "Ġboss": 3434, "Ġloving": 3435, "ĠJulie": 3436, "aky": 3437, "Ġemergen": 3438, "Ġstruck": 3439, "Ġconfident": 3440, "zie": 3441, "Ġburrow": 3442, "Ġyawn": 3443, "Ġexh": 3444, "Ġlux": 3445, "Ġstair": 3446, "Ġopin": 3447, "ĠPip": 3448, "Goodbye": 3449, "Ġcontrol": 3450, "ĠChloe": 3451, "Ġgiggling": 3452, "Ġruin": 3453, "Ġkeeps": 3454, "Ġbunch": 3455, "ĠCoco": 3456, "ÅĵLook": 3457, "ĠBubbles": 3458, "ÅĵHello": 3459, "Ġago": 3460, "Ġclaps": 3461, "âĤ¬âĢĿ": 3462, "Ġpoking": 3463, "ĠletÃ¢": 3464, "Ġpedal": 3465, "ĠTiny": 3466, "Ġstudying": 3467, "ĠFo": 3468, "ais": 3469, "Ġneighbors": 3470, "Ah": 3471, "Ġfashion": 3472, "ĠJamie": 3473, "ĠThomas": 3474, "Ġstamps": 3475, "Ġscurried": 3476, "icky": 3477, "ilence": 3478, "Ġguys": 3479, "Ġprettiest": 3480, "Ġsurface": 3481, "ĠMat": 3482, "uesday": 3483, "Ġcamping": 3484, "ÅĵThis": 3485, "ĠBig": 3486, "Ġgazed": 3487, "Ġpurred": 3488, "Ġtickle": 3489, "ĠTuesday": 3490, "anta": 3491, "Ġcub": 3492, "thank": 3493, "Ġdragged": 3494, "Ġsilence": 3495, "Ġgoodnight": 3496, "ĠRabbit": 3497, "nesday": 3498, "Ġmuscles": 3499, "ĠBetty": 3500, "ph": 3501, "Ġcautious": 3502, "Ġbouncy": 3503, "ÅĵWhy": 3504, "Ġtwinkling": 3505, "Lola": 3506, "Ġobey": 3507, "Ġresult": 3508, "Ġemergency": 3509, "Dan": 3510, "ĠWednesday": 3511, "Ġ1": 3512, "ÅĵDonÃ¢": 3513, "Ġnightmare": 3514, "Ġshock": 3515, "Ġshelves": 3516, "Ġfabric": 3517, "Ġchewing": 3518, "ĠZoom": 3519, "Bun": 3520, "Ġbabies": 3521, "Ġchips": 3522, "Ġladybug": 3523, "Ġluxury": 3524, "ĠNina": 3525, "Uh": 3526, "Ġfrozen": 3527, "Ġreluctantly": 3528, "Ġunexpected": 3529, "ĠLou": 3530, "Ella": 3531, "Ġimportance": 3532, "Ġpatience": 3533, "Ġcurly": 3534, "ica": 3535, "ĠAun": 3536, "ĠCarl": 3537, "Ġtheirs": 3538, "ĠyouÃ¢": 3539, "Ġrubbing": 3540, "Ġlibrarian": 3541, "Ġeight": 3542, "Ġhugging": 3543, "ĠJessie": 3544, "Ġeffort": 3545, "Ġrainbows": 3546, "ÅĵOh": 3547, "Ġsighs": 3548, "Ġhomework": 3549, "Ġslimy": 3550, "Ġcontest": 3551, "Ġknowledge": 3552, "Ġbalancing": 3553, "jamas": 3554, "ĠTilly": 3555, "Ġwedding": 3556, "Ġsituation": 3557, "Grandpa": 3558, "ĠClaire": 3559, "Ġpassing": 3560, "ĠLulu": 3561, "Ġwritten": 3562, "ĠAlways": 3563, "ĠcanÃ¢": 3564, "Ġoutf": 3565, "ĠSanta": 3566, "Ġlean": 3567, "guing": 3568, "ĠSusan": 3569, "eal": 3570, "Ġarguing": 3571, "Ġusual": 3572, "...": 3573, "Ġweb": 3574, "though": 3575, "Ġpatted": 3576, "Ġtowels": 3577, "Teddy": 3578, "bling": 3579, "Ye": 3580, "Excuse": 3581, "Ġtruly": 3582, "irm": 3583, "Ġspike": 3584, "Ġblink": 3585, "Ġregretted": 3586, "va": 3587, "Pete": 3588, "Ġmarriage": 3589, "Ġcaused": 3590, "Ġexhausted": 3591, "Ġtrembling": 3592, "Ġaccomplish": 3593, "Ġpajamas": 3594, "Ġstruggle": 3595, "Yeah": 3596, "Ro": 3597, "Ġspraying": 3598, "Leo": 3599, "ĠSuzie": 3600, "you": 3601, "Ġpencils": 3602, "aa": 3603, "Ġinviting": 3604, "Ġarrive": 3605, "Dave": 3606, "ĠPinky": 3607, "ĠEn": 3608, "Ġdisagree": 3609, "Kitty": 3610, "Ġleap": 3611, "Ġorganizing": 3612, "Ġstorekeeper": 3613, "Ġglitter": 3614, "Ġpaddled": 3615, "Ġspill": 3616, "Ġunf": 3617, "Ġventured": 3618, "ience": 3619, "ĠMomo": 3620, "Ġactivities": 3621, "ĠLinda": 3622, "Grace": 3623, "aisies": 3624, "Ġquack": 3625, "ĠJeff": 3626, "ĠSadly": 3627, "Ġcountryside": 3628, "Ġseesaw": 3629, "ĠwasnÃ¢": 3630, "Ġproject": 3631, "Ġstern": 3632, "Ġdaisies": 3633, "ĠFrog": 3634, "Ġvanish": 3635, "Ġcopy": 3636, "Ġencourage": 3637, "Ġchuck": 3638, "Afterwards": 3639, "Ġworries": 3640, "Ġdarkness": 3641, "Ġfirm": 3642, "Ġthro": 3643, "Ġcast": 3644, "Ġhunt": 3645, "George": 3646, "ĠAdam": 3647, "Ġcrumbs": 3648, "ĠLeave": 3649, "ĠBy": 3650, "Ġeverybody": 3651, "Ġtwinkle": 3652, "Ġrelief": 3653, "Ġhonk": 3654, "ĠStar": 3655, "Ann": 3656, "Ġdipped": 3657, "Ġtexture": 3658, "lowly": 3659, "Ġseems": 3660, "ĠLuke": 3661, "ley": 3662, "Ġopinion": 3663, "ĠFox": 3664, "Mittens": 3665, "Ġcautiously": 3666, "ĠUnfortunately": 3667, "ĠBoth": 3668, "ĠPut": 3669, "Ġthroat": 3670, "Ġripe": 3671, "Ġpoems": 3672, "Ġlamb": 3673, "Ġcrowd": 3674, "Ġlollipops": 3675, "ky": 3676, "arth": 3677, "Maggie": 3678, "Ġfolding": 3679, "Ġstaying": 3680, "Ġgroceries": 3681, "Ġblows": 3682, "ĠBird": 3683, "Bad": 3684, "Ġswooped": 3685, "ĠTwo": 3686, "men": 3687, "Ġgaze": 3688, "Ġpastries": 3689, "Ġyesterday": 3690, "âĤ¬Ë": 3691, "âĤ¬Ëľ": 3692, "Mrs": 3693, "Ġcause": 3694, "br": 3695, "Ġhops": 3696, "Ġsnowballs": 3697, "iliar": 3698, "Ġnaps": 3699, "Mike": 3700, "Ġfluttered": 3701, "Ġpastels": 3702, "ÅĵMommy": 3703, "Ellie": 3704, "Ġdesert": 3705, "Ġrolls": 3706, "Ġforehead": 3707, "ĠKayla": 3708, "ĠSn": 3709, "Fred": 3710, "ristmas": 3711, "ĠJessica": 3712, "Ġchuckled": 3713, "Paul": 3714, "Ġbumpy": 3715, "ÅĵWhatÃ¢": 3716, "Ġremote": 3717, "Ġwiggled": 3718, "ĠChristmas": 3719, "Ġwow": 3720, "Unfortunately": 3721, "Ġtwin": 3722, "James": 3723, "ĠMatt": 3724, "hile": 3725, "Ġsilent": 3726, "igi": 3727, "ĠBeing": 3728, "Ġrecording": 3729, "ĠCindy": 3730, "Ġnectar": 3731, "Ġliqu": 3732, "ove": 3733, "Ġstays": 3734, "Ġsomebody": 3735, "Ġawake": 3736, "ĠKeep": 3737, "ĠDoggy": 3738, "ays": 3739, "Henry": 3740, "ĠWatch": 3741, "Run": 3742, "ĠTara": 3743, "Ġdetermination": 3744, "Ġachieve": 3745, "Ġexpect": 3746, "Ġsuitcase": 3747, "Fine": 3748, "Ġbowls": 3749, "Ġcashier": 3750, "ranny": 3751, "cited": 3752, "ĠMany": 3753, "ĠJacob": 3754, "Ġbars": 3755, "Ġwears": 3756, "ility": 3757, "Ġfroze": 3758, "Ġpleasure": 3759, "ĠEnjoy": 3760, "yond": 3761, "Ġentrance": 3762, "May": 3763, "Ġsurround": 3764, "Ġbumps": 3765, "ĠMira": 3766, "Ġafterwards": 3767, "Ġhandful": 3768, "Ġskill": 3769, "Ġbeyond": 3770, "?'": 3771, "ĠJulia": 3772, "boat": 3773, "Ġcandies": 3774, "Ġbehav": 3775, "Ġjoking": 3776, "Ġconsequen": 3777, "Ġmiles": 3778, "ĠLarry": 3779, "ĠPrincess": 3780, "Ġadding": 3781, "Ġliquid": 3782, "ÅĵCome": 3783, "Ġscarves": 3784, "Ġthor": 3785, "ĠYes": 3786, "Joey": 3787, "Millie": 3788, "Ġimpos": 3789, "ĠGet": 3790, "Ġwrist": 3791, "Ġpurr": 3792, "Sad": 3793, "Ġimpossible": 3794, "Ġburst": 3795, "Ġcupcakes": 3796, "Kate": 3797, "brush": 3798, "go": 3799, "Ġbeginning": 3800, "no": 3801, "Ġconsequences": 3802, "Ġseven": 3803, "iki": 3804, "Ġfirefighters": 3805, "choo": 3806, "Those": 3807, "ĠSnug": 3808, "Ġhesitated": 3809, "Ġmis": 3810, "Ġthird": 3811, "Days": 3812, "Ġweeping": 3813, "Shh": 3814, "Ġleading": 3815, "Ġsiblings": 3816, "ĠSque": 3817, "Ġoutfit": 3818, "band": 3819, "ths": 3820, "Ġflapping": 3821, "Ġdarling": 3822, "Ġraindrop": 3823, "ĠOlive": 3824, "Ġthreat": 3825, "Ġtyp": 3826, "Ġsnuck": 3827, "Ġaccomplishment": 3828, "Ġdeserve": 3829, "ĠSnuggles": 3830, "Ġdrums": 3831, "Ġdollhouse": 3832, "Ġmixture": 3833, "ĠwouldnÃ¢": 3834, "addie": 3835, "Ġbuying": 3836, "Charlie": 3837, "ĠWater": 3838, "Ġpaddle": 3839, "Ġhorizon": 3840, "Ġneither": 3841, "Ġheading": 3842, "Ġgems": 3843, "Ġswept": 3844, "ĠEverybody": 3845, "Ġfamilies": 3846, "elia": 3847, "Ġchefs": 3848, "ÅĵDo": 3849, "ĠWithout": 3850, "Ġmushrooms": 3851, "ÅĵWow": 3852, "Ġhallway": 3853, "Ġarrows": 3854, "Ġwrapping": 3855, "Sur": 3856, "Ġyells": 3857, "ÅĵYouÃ¢": 3858, "Ġconv": 3859, "tuce": 3860, "ÅĵHi": 3861, "Ġfluttering": 3862, "Ġscrubbed": 3863, "Ġlosing": 3864, "Ġpaying": 3865, "Ġlettuce": 3866, "Ġsecure": 3867, "ĠMickey": 3868, "Ġcreativity": 3869, "iding": 3870, "Ġbedtime": 3871, "ĠJazz": 3872, "ĠSophia": 3873, "Ġtreehouse": 3874, "ĠwonÃ¢": 3875, "ĠSqu": 3876, "ĠAbbie": 3877, "Ġcuddly": 3878, "Ġpuppies": 3879, "Ġcowboy": 3880, "Ġdrifted": 3881, "ĠOut": 3882, "ĠGigi": 3883, "ops": 3884, "Lilly": 3885, "Ġgrabbing": 3886, "yan": 3887, "Ġtiptoed": 3888, "ĠEls": 3889, "Ġconcer": 3890, "Danny": 3891, "ĠPandy": 3892, "Ġhi": 3893, "ĠSlowly": 3894, "Ġtrampol": 3895, "Ġsource": 3896, "Ġstomped": 3897, "Milly": 3898, "Polly": 3899, "ĠZip": 3900, "Ġgrowls": 3901, "Ġbackwards": 3902, "Ġtrampoline": 3903, "Ġinsp": 3904, "Ġrising": 3905, "Great": 3906, "Ġincluding": 3907, "ĠEarth": 3908, "dies": 3909, "Ġsprinkled": 3910, "ĠNick": 3911, "Ġwound": 3912, "Ġhus": 3913, "Ġheavier": 3914, "Ġfears": 3915, "fall": 3916, "Ġimagining": 3917, "Ġdiving": 3918, "ĠLaura": 3919, "Jess": 3920, "Ġsailboat": 3921, "Ġscrewd": 3922, "ĠJay": 3923, "ĠJune": 3924, "alph": 3925, "Ġwrink": 3926, "Ġhesitant": 3927, "Ġtodd": 3928, "hog": 3929, "imon": 3930, "Ġchip": 3931, "Ġneighbours": 3932, "Ġrustling": 3933, "Ġaudience": 3934, "ĠTess": 3935, "Roar": 3936, "Ġsnowmen": 3937, "Meow": 3938, "ĠBinky": 3939, "rr": 3940, "Ew": 3941, "te": 3942, "Ġwiping": 3943, "ÅĵMy": 3944, "For": 3945, "Ġavoid": 3946, "Ġdreamt": 3947, "Ġhusband": 3948, "Oops": 3949, "Ġrecipe": 3950, "Ġadult": 3951, "ĠPam": 3952, "Ġscrewdriver": 3953, "ĠMilo": 3954, "Ġsurroundings": 3955, "Ġraincoat": 3956, "ably": 3957, "Ġafford": 3958, "Ġtemperat": 3959, "ĠRobert": 3960, "Ġhedgehog": 3961, "ael": 3962, "Sandy": 3963, "Ġwobbled": 3964, "ĠAunt": 3965, "ĠFinn": 3966, "Ġvanilla": 3967, "Ġcousin": 3968, "Ġplanning": 3969, "Ġscrews": 3970, "child": 3971, "Ġtails": 3972, "Ġreass": 3973, "ichael": 3974, "jo": 3975, "Ġbows": 3976, "Ġreflection": 3977, "Boo": 3978, "ae": 3979, "Woof": 3980, "Ġpraying": 3981, "shmallow": 3982, "Ġintrigued": 3983, "Ġchick": 3984, "iggly": 3985, "ĠOur": 3986, "Ġprettier": 3987, "Ġtwice": 3988, "Ġtemperature": 3989, "Ġhitting": 3990, "Ġduckling": 3991, "Ġtissue": 3992, "Fin": 3993, "Ġbodies": 3994, "Ġscamp": 3995, "Ġfeeding": 3996, "Ġwoof": 3997, "Ġcuriously": 3998, "Our": 3999, "Ġtunnels": 4000, "Ġforgetting": 4001, "Ġzipping": 4002, "vin": 4003, "Baby": 4004, "tment": 4005, "Ġ10": 4006, "Ġgrandchild": 4007, "Ġclick": 4008, "Ġhopeful": 4009, "Ġflavors": 4010, "Ġspreading": 4011, "Ġspoonful": 4012, "Ġgasp": 4013, "Clara": 4014, "Ġfamiliar": 4015, "Ġgrows": 4016, "Ġmagician": 4017, "fly": 4018, "Ġmesmerized": 4019, "Ġsnowf": 4020, "--": 4021, "Ġdollars": 4022, "Ġsnuggle": 4023, "Surp": 4024, "ĠMaya": 4025, "Ġwraps": 4026, "Ġsailors": 4027, "Ġmarshmallow": 4028, "ĠGranny": 4029, "Ab": 4030, "Ġnine": 4031, "Ġenthusias": 4032, "Ġenthusiasm": 4033, "ĠSqueaky": 4034, "Ġmuscle": 4035, "ĠBirthday": 4036, "ĠFriends": 4037, "ĠUntil": 4038, "Ġalien": 4039, "Ġneatly": 4040, "ĠBoun": 4041, "ido": 4042, "uing": 4043, "Ġleast": 4044, "ĠBluey": 4045, "Jul": 4046, "Ġpuppet": 4047, "Ġonward": 4048, "Nemo": 4049, "Ġraccoon": 4050, "Tweety": 4051, "arb": 4052, "Katie": 4053, "Ġreason": 4054, "ĠRyan": 4055, "Tr": 4056, "Ġstarfish": 4057, "By": 4058, "ĠthatÃ¢": 4059, "Ġhawk": 4060, "Ducky": 4061, "Ġrefreshing": 4062, "Ġrotten": 4063, "Ġthud": 4064, "Pat": 4065, "ĠMeg": 4066, "Tina": 4067, "Ġfeast": 4068, "Ġdaring": 4069, "ĠZoey": 4070, "Ġswirl": 4071, "ÅĵMom": 4072, "obbly": 4073, "ĠMartha": 4074, "ĠRobbie": 4075, "Ġsending": 4076, "ĠChris": 4077, "Ġsneezing": 4078, "ĠTodd": 4079, "Ġwobbly": 4080, "Nina": 4081, "Ġsniffs": 4082, "Ġdefe": 4083, "Ġparticular": 4084, "Maria": 4085, "Bill": 4086, "Ġswallowed": 4087, "Blue": 4088, "Ġdropping": 4089, "years": 4090, "Ġamoun": 4091, "Ġmischie": 4092, "Ġtoddler": 4093, "ĠKiki": 4094, "Ġconfl": 4095, "Ġcr": 4096, "Ġdip": 4097, "Ruby": 4098, "ĠFar": 4099, "Sadly": 4100, "ĠJanie": 4101, "cc": 4102, "ĠAbi": 4103, "Ġfocused": 4104, "rising": 4105, "Ġjoyful": 4106, "ÅĵBut": 4107, "ĠBaa": 4108, "Ġfirefighter": 4109, "ĠOwl": 4110, "Ġscampered": 4111, "while": 4112, "ĠOnly": 4113, "Ġworn": 4114, "Ġdie": 4115, "ĠMaddie": 4116, "Ġpennies": 4117, "Ġdrawn": 4118, "Back": 4119, "ĠStay": 4120, "Ġexpress": 4121, "Ġunsure": 4122, "Ġleapt": 4123, "Ġwiggle": 4124, "Ġskunk": 4125, "retty": 4126, "bird": 4127, "Ġwaterfall": 4128, "ĠSquirrel": 4129, "Ġocc": 4130, "Ġpours": 4131, "ÅĵWhere": 4132, "ĠTake": 4133, "cake": 4134, "Miss": 4135, "Ġthroughout": 4136, "Ġappreciation": 4137, "Ġcompassion": 4138, "ĠFrosty": 4139, "Ġplaytime": 4140, "Ġnervously": 4141, "imp": 4142, "Ġprobably": 4143, "Very": 4144, "Ġechoed": 4145, "Ġencouraging": 4146, "ausing": 4147, "ubba": 4148, "fia": 4149, "bur": 4150, "Ġoatm": 4151, "Ġcertain": 4152, "arbage": 4153, "rrr": 4154, "ĠSadie": 4155, "Ġcausing": 4156, "ĠThatÃ¢": 4157, "Ġgarbage": 4158, "Ġwaddled": 4159, "Ġflutter": 4160, "Ġoatmeal": 4161, "Listen": 4162, "ĠJackie": 4163, "Ġwept": 4164, "Ġmarshmallows": 4165, "Ġtossed": 4166, "ĠLove": 4167, "Ġflown": 4168, "Quick": 4169, "Ġamong": 4170, "Ġfirmly": 4171, "rey": 4172, "Ġamount": 4173, "anwhile": 4174, "Ġsewing": 4175, "ĠDavey": 4176, "ĠZara": 4177, "Ġsquishy": 4178, "Ġplayroom": 4179, "Ġbells": 4180, "ĠHoney": 4181, "ĠY": 4182, "Ġroars": 4183, "idey": 4184, "tage": 4185, "Ġpassengers": 4186, "Ġloading": 4187, "Ġspices": 4188, "During": 4189, "ĠGina": 4190, "Ġbehavior": 4191, "Ġaimed": 4192, "Ġ2": 4193, "Ġpostman": 4194, "Like": 4195, "Ġshown": 4196, "Ġev": 4197, "Ġmonths": 4198, "ĠPh": 4199, "ĠRalph": 4200, "ĠSimon": 4201, "ĠJudy": 4202, "ĠBessie": 4203, "Ġsqueezing": 4204, "Ġdoorway": 4205, "but": 4206, "espite": 4207, "fire": 4208, "Ġnuzz": 4209, "?!\"": 4210, "Ġnapping": 4211, "ĠTuna": 4212, "ÅĵOkay": 4213, "ĠFido": 4214, "Ġcottage": 4215, "Ġtricycle": 4216, "ĠLia": 4217, "Follow": 4218, "Mine": 4219, "Ġhealth": 4220, "ĠMabel": 4221, "Alright": 4222, "ert": 4223, "Watch": 4224, "Ġconflict": 4225, "Ġangels": 4226, "Ġcongrat": 4227, "Ġnoodles": 4228, "Ġpaintbrush": 4229, "Su": 4230, "Ġtying": 4231, "Ġinj": 4232, "Even": 4233, "piece": 4234, "Ġshady": 4235, "Ġforgiving": 4236, "Ġelf": 4237, "Ġshovels": 4238, "ĠMouse": 4239, "Ġcrossing": 4240, "Ġguide": 4241, "Mimi": 4242, "found": 4243, "ĠAmelia": 4244, "Ġconnected": 4245, "Ġthorns": 4246, "Ġevil": 4247, "Ġslipping": 4248, "Ġlaying": 4249, "ĠFarmer": 4250, "âĤ¬,": 4251, "Ġheartbroken": 4252, "Ġyum": 4253, "Take": 4254, "Ġsurv": 4255, "Ġswimsuit": 4256, "Ġcotton": 4257, "Ġsurfing": 4258, "Ġfocus": 4259, "Ġlending": 4260, "evin": 4261, "ĠHolly": 4262, "worm": 4263, "Ġrisks": 4264, "ĠRay": 4265, "Ġsurfboard": 4266, "ĠX": 4267, "ĠMichael": 4268, "ĠSpidey": 4269, "Ġresponse": 4270, "Ġbru": 4271, "Ġfootsteps": 4272, "Ġsymbols": 4273, "ĠAli": 4274, "Ġreminding": 4275, "Ġdisturbing": 4276, "Ġdefinitely": 4277, "Vroom": 4278, "ÅĵPlease": 4279, "ĠUp": 4280, "Ġencoun": 4281, "Ġelbow": 4282, "Ġsnowflakes": 4283, "Abigail": 4284, "ĠBubba": 4285, "Ġawoke": 4286, "Ġsails": 4287, "Ġreassured": 4288, "Ġdriveway": 4289, "Kim": 4290, "Jerry": 4291, "Ġpunishment": 4292, "Surprise": 4293, "Ġoccas": 4294, "Ġafar": 4295, "ĠYesterday": 4296, "ĠFire": 4297, "ĠQuack": 4298, "Tw": 4299, "ĠFuzzy": 4300, "Ġnewfound": 4301, "pt": 4302, "ÅĵOf": 4303, "ĠSc": 4304, "ĠRocky": 4305, "ĠKaren": 4306, "Ġrespons": 4307, "atur": 4308, "ĠLouise": 4309, "Ġsqueaked": 4310, "Ġwobble": 4311, "Ġcorrectly": 4312, "Ġresponsib": 4313, "eople": 4314, "ĠFreddie": 4315, "Ġbattle": 4316, "ĠSatur": 4317, "Excited": 4318, "Ġsqueak": 4319, "Ġtravels": 4320, "Ġapologised": 4321, "laying": 4322, "ĠBo": 4323, "Ġhanding": 4324, "Since": 4325, "Ġhairdresser": 4326, "Ġcaf": 4327, "Ġchilly": 4328, "father": 4329, "da": 4330, "ĠSnowman": 4331, "Ġsurprising": 4332, "Ġworrying": 4333, "Ġflipped": 4334, "Ġdiscussing": 4335, "ĠAlthough": 4336, "ÅĵHey": 4337, "Ġreunited": 4338, "Ġmagn": 4339, "Ġinspired": 4340, "Ġartwork": 4341, "Ġwindowsill": 4342, "Ġwrinkled": 4343, "Ġpoppies": 4344, "Ġstopping": 4345, "Ġdonkey": 4346, "ĠWally": 4347, "Ġspies": 4348, "Ġreapp": 4349, "Ġtrotted": 4350, "Ġscarecrow": 4351, "Ġsniffing": 4352, "Ġmasterpiece": 4353, "Ġbusiness": 4354, "Ġadmiration": 4355, "Get": 4356, "Ġgears": 4357, "ddie": 4358, "Ġsuggestion": 4359, "Ġyelped": 4360, "Ġjars": 4361, "ĠWil": 4362, "Ġterrified": 4363, "David": 4364, "Ġseashells": 4365, "creen": 4366, "ancy": 4367, "Ġcongratulated": 4368, "ĠDr": 4369, "Frank": 4370, "Ġinsisting": 4371, "Ġcalmly": 4372, "ĠPippin": 4373, "Ġbirdhouse": 4374, "Ġcampfire": 4375, "ĠMo": 4376, "Ġexpert": 4377, "Ġmermaid": 4378, "wise": 4379, "iza": 4380, "Ġnodding": 4381, "Ġpurp": 4382, "Ġspeeding": 4383, "ĠFighting": 4384, "Ġaware": 4385, "ĠSamantha": 4386, "Ted": 4387, "pen": 4388, "Ġtoolbox": 4389, "Ġsunscreen": 4390, "Ġgrip": 4391, "Ġdesp": 4392, "Ġcurl": 4393, "ĠFiona": 4394, "Ġactivity": 4395, "ĠEva": 4396, "Ġstomp": 4397, "ĠJan": 4398, "ggy": 4399, "ĠKaty": 4400, "Chloe": 4401, "Ġnibbled": 4402, "imb": 4403, "Ġfoxes": 4404, "Ġsquaw": 4405, "Ġpupils": 4406, "ĠSofia": 4407, "Goodnight": 4408, "ails": 4409, "Ġsolving": 4410, "Steve": 4411, "what": 4412, "Ġwarmly": 4413, "vroom": 4414, "Ġpurpose": 4415, "inkle": 4416, "Ġclerk": 4417, "True": 4418, "ĠJojo": 4419, "ĠRuth": 4420, "Ġgazing": 4421, "Ġgap": 4422, "Ġburying": 4423, "Ġdragonfly": 4424, "Poppy": 4425, "Ġalthough": 4426, "Ġmischievous": 4427, "Ġtumbled": 4428, "ĠHope": 4429, "Ġoppos": 4430, "ĠMaddy": 4431, "ÅĵSure": 4432, "ising": 4433, "Ġspells": 4434, "arlotte": 4435, "Ġswollen": 4436, "Meanwhile": 4437, "Jamie": 4438, "Hop": 4439, "ÅĵSee": 4440, "isc": 4441, "Ġscurrying": 4442, "ĠMin": 4443, "Ġfilms": 4444, "Ġpeas": 4445, "Ġbeaming": 4446, "agic": 4447, "Ġdrift": 4448, "Leave": 4449, "Ġopposite": 4450, "free": 4451, "Ġconversation": 4452, "ms": 4453, "ĠBounce": 4454, "ĠPepper": 4455, "Ġtidied": 4456, "ĠSpeedy": 4457, "Ġmeowing": 4458, "ean": 4459, "ÅĵThe": 4460, "ĠSaturday": 4461, "ĠAshley": 4462, "ivia": 4463, "Ġencountered": 4464, "Dear": 4465, "Ġtype": 4466, "Ġsweaty": 4467, "Ġexamining": 4468, "Ġunw": 4469, "ĠRain": 4470, "Ġsternly": 4471, "ĠLy": 4472, "Ġtransf": 4473, "ĠDespite": 4474, "Ġtapping": 4475, "Ġemerged": 4476, "ĠJonny": 4477, "Penny": 4478, "Ġrotting": 4479, "Ġgrandfather": 4480, "Stay": 4481, "ĠElsa": 4482, "Ġenviron": 4483, "Ġspy": 4484, "ĠKevin": 4485, "Ġvisitors": 4486, "Ġrescuing": 4487, "Ġsmo": 4488, "Ġwhimp": 4489, "Ġinchworm": 4490, "Ġpermitted": 4491, "Ġshall": 4492, "Ġenvironment": 4493, "Ġdeclared": 4494, "ĠJoan": 4495, "Ġsurvive": 4496, "Bunny": 4497, "Boy": 4498, "Ġlabels": 4499, "Ġforce": 4500, "ilities": 4501, "Ġattacked": 4502, "sing": 4503, "Ġgesture": 4504, "Ġshimmering": 4505, "Ġsill": 4506, "Ġresponded": 4507, "Ġgratitude": 4508, "Ġnibble": 4509, "Ġmanners": 4510, "ĠYouÃ¢": 4511, "Ġflaps": 4512, "ĠPatty": 4513, "ÅĵGood": 4514, "Always": 4515, "Ġscrambled": 4516, "Ġmatey": 4517, "Ġclassmates": 4518, "Bang": 4519, "mine": 4520, "ĠKelly": 4521, "ĠSnowball": 4522, "Ġaddress": 4523, "Ġanticipation": 4524, "Ġwiggly": 4525, "Ġpicnics": 4526, "Thomas": 4527, "ĠGreen": 4528, "Ġaisle": 4529, "Ġseagulls": 4530, "ĠPhil": 4531, "Rachel": 4532, "ars": 4533, "ÅĵWho": 4534, "asha": 4535, "Ġinstantly": 4536, "Ġswaying": 4537, "Ġloc": 4538, "Ġpurrs": 4539, "Ġdripp": 4540, "ĠOther": 4541, "ĠSw": 4542, "Ġstall": 4543, "ĠTy": 4544, "ĠHold": 4545, "ĠMaisy": 4546, "Ġbeeh": 4547, "Someone": 4548, "Ġmillion": 4549, "Ġswap": 4550, "idence": 4551, "Ġprickly": 4552, "ĠSparkle": 4553, "ĠAg": 4554, "Ġdripping": 4555, "Ġdoorbell": 4556, "Ġdrowned": 4557, "Ġargument": 4558, "Am": 4559, "Ġsquin": 4560, "LetÃ¢": 4561, "ĠJax": 4562, "Ġobserving": 4563, "Ġnuzzled": 4564, "Ġveg": 4565, "ĠAva": 4566, "ĠTaking": 4567, "ĠLion": 4568, "ĠHoot": 4569, "Ġwealth": 4570, "ĠStan": 4571, "Ġflips": 4572, "Ġresponsibility": 4573, "Ġastronauts": 4574, "ĠJump": 4575, "Ġmunched": 4576, "Ġcrawls": 4577, "romise": 4578, "Ġsmelt": 4579, "Ġchipm": 4580, "Ġstethos": 4581, "Ġannounced": 4582, "Ġincreasing": 4583, "Ġdodged": 4584, "Adam": 4585, "ĠDuck": 4586, "ÅĵMaybe": 4587, "Ġbouquet": 4588, "Ġcocoon": 4589, "becca": 4590, "Quack": 4591, "Ġnovels": 4592, "ufus": 4593, "ĠMae": 4594, "lock": 4595, "ummies": 4596, "Julie": 4597, "ĠSpring": 4598, "ĠgirlÃ¢": 4599, "Ġknives": 4600, "Claire": 4601, "Ġtummies": 4602, "Ġgerms": 4603, "ĠFrankie": 4604, "Ġstethoscope": 4605, "Ġcourt": 4606, "flowers": 4607, "ĠIzzy": 4608, "Buddy": 4609, "Ġtidying": 4610, "Ġsupplied": 4611, "ĠTur": 4612, "Zoe": 4613, "ĠEddie": 4614, "Ġcupcake": 4615, "Ġchatted": 4616, "Ġawful": 4617, "Ġattack": 4618, "Ġbeaver": 4619, "aws": 4620, "Ġpaddling": 4621, "Ġcheckout": 4622, "Ġgenerosity": 4623, "Ġkilled": 4624, "Ġburnt": 4625, "Ġwinding": 4626, "Ġsyr": 4627, "Ġsyrup": 4628, "Ġsnaps": 4629, "Snow": 4630, "ĠPoor": 4631, "Ġinsist": 4632, "Ġexploded": 4633, "ĠRudy": 4634, "ĠTessa": 4635, "racie": 4636, "Ġbeehive": 4637, "five": 4638, "Ġoverhead": 4639, "Ġicing": 4640, "ĠElsie": 4641, "Arrr": 4642, "Choo": 4643, "ĠSay": 4644, "ĠDonÃ¢": 4645, "Ġadmit": 4646, "line": 4647, "Ġblown": 4648, "Ġproviding": 4649, "Ġscul": 4650, "ĠZero": 4651, "ĠKay": 4652, "uddles": 4653, "opper": 4654, "Ġdestroying": 4655, "Buzz": 4656, "ĠJason": 4657, "ĠIsn": 4658, "Ġelectric": 4659, "idnight": 4660, "ĠwhatÃ¢": 4661, "prin": 4662, "ĠMan": 4663, "Ġtelescope": 4664, "Honey": 4665, "ĠTrust": 4666, "Ġveggies": 4667, "Ġbluebird": 4668, "Mar": 4669, "Ġpetting": 4670, "âĤ¬Â": 4671, "Ġconductor": 4672, "ĠAr": 4673, "water": 4674, "âĤ¬Â¦": 4675, "ĠCrabby": 4676, "olph": 4677, "udolph": 4678, "Uncle": 4679, "ĠLuc": 4680, "Ġdefeated": 4681, "Ġcollapsed": 4682, "ordinary": 4683, "Ġglided": 4684, "Ġwildflowers": 4685, "Ġbisc": 4686, "Ġswallow": 4687, "Ġchipmunk": 4688, "Boys": 4689, "ĠPin": 4690, "Tilly": 4691, "Ġfaint": 4692, "Nice": 4693, "Ġsuggest": 4694, "Ġbeast": 4695, "Ġserving": 4696, "Ġgrumbled": 4697, "Ġshrug": 4698, "Jessie": 4699, "ĠRicky": 4700, "Ġflip": 4701, "Ġborn": 4702, "Ġglimmering": 4703, "Put": 4704, "Ġhotter": 4705, "Ġsculpt": 4706, "Ġapplauding": 4707, "ÅĵBe": 4708, "Ġsquished": 4709, "issa": 4710, "ĠTammy": 4711, "Mira": 4712, "Ġconfidence": 4713, "Ġfascinating": 4714, "ippy": 4715, "ĠBobbie": 4716, "ÅĵOk": 4717, "Ġconcent": 4718, "Ġsprang": 4719, "pril": 4720, "ĠmomÃ¢": 4721, "Ġscrub": 4722, "ĠJas": 4723, "ĠGus": 4724, "Ġextraordinary": 4725, "ĠTerry": 4726, "ĠCharlotte": 4727, "Ġflowing": 4728, "Ġattitude": 4729, "Ġimaginary": 4730, "ĠWin": 4731, "Kids": 4732, "ĠNana": 4733, "El": 4734, "ĠShow": 4735, "Ġcheated": 4736, "ĠBrian": 4737, "Ġmunching": 4738, "Ġconquered": 4739, "Ġmeows": 4740, "ĠCurious": 4741, "ĠGary": 4742, "Papa": 4743, "Ġmelody": 4744, "ieve": 4745, "ĠEric": 4746, "Ġannoying": 4747, "Ġcells": 4748, "gar": 4749, "atty": 4750, "Ġcountries": 4751, "Ġmommies": 4752, "Ġchill": 4753, "car": 4754, "Ġmodels": 4755, "ickie": 4756, "ĠNever": 4757, "Ġexpression": 4758, "Ġposs": 4759, "ĠPeggy": 4760, "ĠOlivia": 4761, "Ġthorn": 4762, "Ġcompete": 4763, "Ġbehaviour": 4764, "Ġcommon": 4765, "balls": 4766, "itter": 4767, "whel": 4768, "Ġcheat": 4769, "Ġcowboys": 4770, "ĠWooly": 4771, "ĠBr": 4772, "Each": 4773, "Ġoverwhel": 4774, "Ġ5": 4775, "ĠPretty": 4776, "itting": 4777, "Ġastronaut": 4778, "Ġability": 4779, "ĠSk": 4780, "shaped": 4781, "Ġflavour": 4782, "Suzy": 4783, "Ġmoat": 4784, "Ġrelaxing": 4785, "Ġtuck": 4786, "Ġenemies": 4787, "ĠFairy": 4788, "Ġbubbly": 4789, "Ġwriggled": 4790, "Ġreappeared": 4791, "Ġenjoyable": 4792, "Ġswirls": 4793, "Ġsoapy": 4794, "ĠRudolph": 4795, "Ġopportunity": 4796, "Ġdistracted": 4797, "Ġchatting": 4798, "Ġdetails": 4799, "Aun": 4800, "ĠDino": 4801, "Ġgrasshopper": 4802, "Ġdock": 4803, "ĠFel": 4804, "Whiskers": 4805, "ĠImmediately": 4806, "Ġdump": 4807, "ĠAmber": 4808, "Ġthump": 4809, "Ġodd": 4810, "ĠTyler": 4811, "ĠWilliam": 4812, "Ġweighs": 4813, "Cindy": 4814, "ĠCaptain": 4815, "ĠSasha": 4816, "Ġrobin": 4817, "Ġbeam": 4818, "Ġmoonlight": 4819, "venir": 4820, "Ġsquinted": 4821, "Hold": 4822, "Ġsouvenir": 4823, "Ġskies": 4824, "Keep": 4825, "ĠEliza": 4826, "Ġmicrow": 4827, "Ġtickling": 4828, "ĠNancy": 4829, "uild": 4830, "Ġsatisfaction": 4831, "Ġfreezing": 4832, "Ġsoundly": 4833, "ĠMidnight": 4834, "ĠAccidents": 4835, "Ġmicrowave": 4836, "Ġcafe": 4837, "ĠSir": 4838, "rench": 4839, "Ġmiracle": 4840, "Ġsnowy": 4841, "ĠPick": 4842, "Liz": 4843, "ĠMake": 4844, "Ġtortoise": 4845, "tling": 4846, "Ġmeatballs": 4847, "Zoom": 4848, "Anytime": 4849, "Ġshattered": 4850, "Ġpossib": 4851, "Feeling": 4852, "Co": 4853, "Ġlocal": 4854, "Hmm": 4855, "ifi": 4856, "Ġangrily": 4857, "ware": 4858, "Ol": 4859, "Ġchews": 4860, "Ġpleas": 4861, "Ġclip": 4862, "hole": 4863, "Ġheight": 4864, "ĠPenelope": 4865, "ĠRufus": 4866, "ĠTwinkle": 4867, "cotch": 4868, "bank": 4869, "',": 4870, "elvet": 4871, "Ġrows": 4872, "ĠZack": 4873, "limb": 4874, "Star": 4875, "amiliar": 4876, "Ġtraps": 4877, "Ġburger": 4878, "Karen": 4879, "Ġunfamiliar": 4880, "Jacob": 4881, "off": 4882, "Ġpantry": 4883, "HE": 4884, "ĠPrince": 4885, "Ġunfair": 4886, "Ġstuffing": 4887, "Kayla": 4888, "Ġfireflies": 4889, "Brownie": 4890, "Ġtentacles": 4891, "Cat": 4892, "ĠCara": 4893, "Ġwelcoming": 4894, "ĠBehind": 4895, "Ġaim": 4896, "Ġexchange": 4897, "Ġcompanion": 4898, "ĠSeeing": 4899, "Ġrisk": 4900, "chup": 4901, "Lulu": 4902, "Ġcroaked": 4903, "Ġlookout": 4904, "ĠNe": 4905, "avi": 4906, "Ġpositive": 4907, "Two": 4908, "ĠZee": 4909, "ĠRosa": 4910, "Ġsandpit": 4911, "Ġsmoking": 4912, "ÅĵYay": 4913, "Ġwaterm": 4914, "ĠJenn": 4915, "ĠLina": 4916, "Ġgroaned": 4917, "Ġexcite": 4918, "ĠBirdie": 4919, "ĠBonnie": 4920, "amb": 4921, "Ġicky": 4922, "Ġill": 4923, "Ġbinoc": 4924, "ĠRebecca": 4925, "Ġpounced": 4926, "Ġslithered": 4927, "ĠTiger": 4928, "ka": 4929, "Ġrewarding": 4930, "Ġreb": 4931, "Ġketchup": 4932, "Ġbomb": 4933, "Ġsturdy": 4934, "Ġgasps": 4935, "ĠPlaying": 4936, "Ġoverwhelmed": 4937, "ĠMonkey": 4938, "Ġtugging": 4939, "Ġintently": 4940, "ĠBarry": 4941, "ĠRight": 4942, "icious": 4943, "Ahoy": 4944, "ĠQuickly": 4945, "ita": 4946, "Ġrowing": 4947, "Ġchopping": 4948, "Open": 4949, "Ġtoss": 4950, "Ġrunner": 4951, "Ġamused": 4952, "Both": 4953, "ĠMagic": 4954, "Ġdemanding": 4955, "ĠStartled": 4956, "lish": 4957, "Baa": 4958, "Ġcertainly": 4959, "ĠweÃ¢": 4960, "Ġcrisp": 4961, "Ġteapot": 4962, "Ġunderwater": 4963, "Ġstew": 4964, "ĠGabby": 4965, "andra": 4966, "ĠStrip": 4967, "iciest": 4968, "Ġcommunicate": 4969, "Ġgoodness": 4970, "Ġenergetic": 4971, "Ġsweetly": 4972, "Ġbruises": 4973, "Ġhopscotch": 4974, "Ġbinoculars": 4975, "Ġmonth": 4976, "Achoo": 4977, "scar": 4978, "die": 4979, "Ġhundreds": 4980, "Ġsnapping": 4981, "ĠPatrick": 4982, "igence": 4983, "Ġteamwork": 4984, "ĠRiley": 4985, "Ġpepperoni": 4986, "Ġelectricity": 4987, "ÅĵWeÃ¢": 4988, "Ġlanding": 4989, "Ġintelligence": 4990, "Ġplaydate": 4991, "Ġdifferently": 4992, "Ġtransformed": 4993, "ĠSleep": 4994, "ĠMelissa": 4995, "Ġmeadows": 4996, "Maya": 4997, "Ġguarding": 4998, "Moo": 4999, "Ġmysteries": 5000, "Ġloyalty": 5001, "ĠApril": 5002, "ĠGray": 5003, "Ġsprout": 5004, "Ġheels": 5005, "Ġdisappointment": 5006, "Ġmarveled": 5007, "Ġriverbank": 5008, "Ġpeaco": 5009, "ĠLu": 5010, "Big": 5011, "ĠVelvet": 5012, "prints": 5013, "Ġmaj": 5014, "Ġslapping": 5015, "Ġwatermelon": 5016, "ĠMamma": 5017, "me": 5018, "Ġinjured": 5019, "Hurry": 5020, "ĠClaus": 5021, "Ġmunch": 5022, "Ġrubbish": 5023, "Ġplayhouse": 5024, "Mat": 5025, "ifying": 5026, "Excitedly": 5027, "ĠGracie": 5028, "Never": 5029, "ĠNate": 5030, "Betty": 5031, "Ġwhimpered": 5032, "ĠJody": 5033, "Ġdefeat": 5034, "ĠAndrew": 5035, "olves": 5036, "ÅĵHow": 5037, "Ġkeyhole": 5038, "Susan": 5039, "Ġstepping": 5040, "Ġboil": 5041, "ĠMila": 5042, "ai": 5043, "Tara": 5044, "Ġtoothbrush": 5045, "Ġshyly": 5046, "ĠAgain": 5047, "ili": 5048, "Ġimpro": 5049, "Ġluckiest": 5050, "Ġlumberj": 5051, "ĠChickie": 5052, "how": 5053, "ĠJu": 5054, "ĠKy": 5055, "Ġtemptation": 5056, "Ġlifegu": 5057, "Ġcharm": 5058, "ĠFifi": 5059, "Ġmagnifying": 5060, "Ġankle": 5061, "Pretty": 5062, "ĠOink": 5063, "Ġfrustration": 5064, "\"!": 5065, "awn": 5066, "cat": 5067, "Ġimproving": 5068, "Jump": 5069, "Ġastonished": 5070, "Ġpeacock": 5071, "filled": 5072, "ĠRich": 5073, "ĠTears": 5074, "Gina": 5075, "Ġworst": 5076, "ĠWeÃ¢": 5077, "THE": 5078, "Ġlevel": 5079, "Ġbowing": 5080, "Pip": 5081, "ĠMartin": 5082, "Je": 5083, "Ġlumberjack": 5084, "Ġcanvas": 5085, "people": 5086, "Ġunwrapped": 5087, "Ġyelp": 5088, "Ġcooperate": 5089, "Fortunately": 5090, "Ġrebuild": 5091, "urse": 5092, "ĠRavi": 5093, "Ġhudd": 5094, "ĠGrump": 5095, "Ġallowing": 5096, "Everything": 5097, "Ġwiggling": 5098, "aisie": 5099, "ĠEd": 5100, "Ġcuddling": 5101, "ruction": 5102, "Ġpopping": 5103, "Ġwoodcut": 5104, "ĠBruce": 5105, "Curious": 5106, "Which": 5107, "Everyday": 5108, "ĠPinchy": 5109, "ĠRatty": 5110, "Julia": 5111, "ĠButter": 5112, "Ġcentre": 5113, "ĠFish": 5114, "Deal": 5115, "ĠLife": 5116, "Robbie": 5117, "Ġservant": 5118, "Snowy": 5119, "Ġquilt": 5120, "ĠBunBun": 5121, "Ġdrying": 5122, "Ġtownspeople": 5123, "Ġ4": 5124, "ĠWilbur": 5125, "Ġoccasion": 5126, "Ġmindful": 5127, "Ġrealise": 5128, "ĠLots": 5129, "Ġlifeguard": 5130, "pect": 5131, "ÅĵA": 5132, "Ġunless": 5133, "Ġ''": 5134, "ĠIce": 5135, "ĠDe": 5136, "ĠJasmine": 5137, "Ġsleeps": 5138, "Ġmayor": 5139, "Ġwrench": 5140, "ĠAngel": 5141, "Ġtrading": 5142, "Ġcourageous": 5143, ",'": 5144, "reya": 5145, "Chirp": 5146, "People": 5147, "ĠLight": 5148, "Jeff": 5149, "Lou": 5150, "like": 5151, "Ġwoodcutter": 5152, "arefully": 5153, "istence": 5154, "ĠCD": 5155, "ĠdoesnÃ¢": 5156, "lyn": 5157, "ibly": 5158, "Slowly": 5159, "ĠShare": 5160, "ĠLeah": 5161, "Ġspringtime": 5162, "Ġfoam": 5163, "Ġcaw": 5164, "ĠBl": 5165, "Ġwheelbarrow": 5166, "ĠMighty": 5167, "ĠZiggy": 5168, "Ġsus": 5169, "ĠSmoke": 5170, "ĠAlf": 5171, "this": 5172, "Ġpreschool": 5173, "Mabel": 5174, "ĠKen": 5175, "Ġsensation": 5176, "ĠFelix": 5177, "Ġotherwise": 5178, "Ãĥ": 5179, "Ġcal": 5180, "ani": 5181, "ĠOscar": 5182, "Ġallowance": 5183, "Ġangrier": 5184, "Ġhuddled": 5185, "ĠheÃ¢": 5186, "Ġwolves": 5187, "Ġbumping": 5188, "ĠTomorrow": 5189, "ĠGinger": 5190, "ĠisnÃ¢": 5191, "Ġseatbelt": 5192, "Ġdisobey": 5193, "Ġdozed": 5194, "ĠWhatÃ¢": 5195, "Ġfootprints": 5196, "ĠColin": 5197, "Ġapproach": 5198, "Ġconcerned": 5199, "Ġcopied": 5200, "Ġspiky": 5201, "Ġsoda": 5202, "Ġcigaret": 5203, "Ġattempts": 5204, "Ġjuiciest": 5205, "Ġsobbing": 5206, "ÅĵWould": 5207, "Linda": 5208, "Ġincredibly": 5209, "Ġprocess": 5210, "ĠEver": 5211, "Ġcontinuing": 5212, "Ġshh": 5213, "mo": 5214, "ĠJackÃ¢": 5215, "Maddy": 5216, "Ġpersistence": 5217, "Jessica": 5218, "umper": 5219, "Nick": 5220, "gic": 5221, "Ġminding": 5222, "Ġguardian": 5223, "ĠRusty": 5224, "Ġpossibilities": 5225, "Ġmacaroni": 5226, "Ġroamed": 5227, "Ġsilently": 5228, "En": 5229, "June": 5230, "Ġinstincts": 5231, "Ġjourneys": 5232, "Ġgoggles": 5233, "ĠSe": 5234, "uffin": 5235, "Ġtheat": 5236, "Outside": 5237, "Ġdoggie": 5238, "Ġundone": 5239, "ÅĵOK": 5240, "Ġpleasant": 5241, "Ġuntangle": 5242, "Ġtheatre": 5243, "Ġrealizing": 5244, "ĠmanÃ¢": 5245, "Free": 5246, "Although": 5247, "Ġnecessary": 5248, "ĠDay": 5249, "Ġshave": 5250, "Ġpeak": 5251, "magine": 5252, "Ġallergic": 5253, "Ġpassenger": 5254, "ĠMs": 5255, "ĠStanley": 5256, "Ġdesperate": 5257, "ĠAnt": 5258, "Ġcondition": 5259, "ĠJoJo": 5260, "vy": 5261, "Milo": 5262, "ĠOst": 5263, "ĠCarol": 5264, "Tiny": 5265, "anny": 5266, "ĠWolf": 5267, "Ġcuc": 5268, "ĠPeanut": 5269, "Ġvinegar": 5270, "idi": 5271, "ĠOver": 5272, "Ġswat": 5273, "Ġmesmerised": 5274, "Ġmaps": 5275, "Sophia": 5276, "Ġseriously": 5277, "ĠViolet": 5278, "Maddie": 5279, "acey": 5280, "Ġtantrum": 5281, "ĠSy": 5282, "reg": 5283, "ambi": 5284, "Ġindoors": 5285, "ĠChuck": 5286, "Ġowls": 5287, "Ġenerg": 5288, "Ġgr": 5289, "Isn": 5290, "Luke": 5291, "ĠOt": 5292, "ĠGemma": 5293, "orse": 5294, "Only": 5295, "Ġmagnificent": 5296, "Sunny": 5297, "Ġwrapper": 5298, "Fire": 5299, "Ġglistening": 5300, "ĠWas": 5301, "ĠRainbow": 5302, "Ġpurch": 5303, "Ġglin": 5304, "ĠAvery": 5305, "per": 5306, "Ġuncovered": 5307, "Ġcapture": 5308, "Suzie": 5309, "Ġgulped": 5310, "Ġsniffled": 5311, "Ġlunchbox": 5312, "wh": 5313, "Ġstirs": 5314, "Ġenc": 5315, "ĠGirl": 5316, "Ġdumb": 5317, "shirt": 5318, "Ġsquirted": 5319, "Mother": 5320, "Spike": 5321, "ĠBuggy": 5322, "Ġnibbling": 5323, "Ġrotted": 5324, "?!": 5325, "Ooh": 5326, "ĠWisdom": 5327, "Ġpref": 5328, "ĠSitting": 5329, "Ġbiscuit": 5330, "Playing": 5331, "Ġoverf": 5332, "ĠJodie": 5333, "Ġcheetah": 5334, "ĠDoctor": 5335, "Abbie": 5336, "Ġsecurity": 5337, "Ġcompromise": 5338, "ĠThrough": 5339, "ĠTe": 5340, "Bless": 5341, "uppy": 5342, "ĠRia": 5343, "Ġtaps": 5344, "Ġalligators": 5345, "Ġhundred": 5346, "ĠSl": 5347, "Ġborrowing": 5348, "Ġdrip": 5349, "Aunt": 5350, "Ġdepartment": 5351, "Ġconfusion": 5352, "Ġobediently": 5353, "ĠOtherwise": 5354, "Ġgorge": 5355, "Ġcocon": 5356, "Ġrespond": 5357, "inny": 5358, "reta": 5359, "eat": 5360, "aps": 5361, "Ġsleigh": 5362, "ĠThumper": 5363, "Ġbeeping": 5364, "Ġroyal": 5365, "Ġchili": 5366, "Ġexhib": 5367, "Ġgorgeous": 5368, "Ġsmoothly": 5369, "Ġprogress": 5370, "Ġpeacefulness": 5371, "ĠThankfully": 5372, "Ġbolt": 5373, "Ġbabys": 5374, "Ġconfidently": 5375, "dia": 5376, "Ġcaution": 5377, "Ġintroducing": 5378, "izza": 5379, "inner": 5380, "Lucky": 5381, "Ġgrandk": 5382, "Aw": 5383, "ĠOstrich": 5384, "Ġsoftness": 5385, "Ġenclos": 5386, "Ġcreak": 5387, "ratulations": 5388, "ĠBambi": 5389, "Ġpeels": 5390, "Startled": 5391, "of": 5392, "ĠboyÃ¢": 5393, "Ġmustn": 5394, "Ġscience": 5395, "Ġsnuggling": 5396, "Ġbundle": 5397, "ĠFlutter": 5398, "ĠFreya": 5399, "ĠUse": 5400, "Ġunz": 5401, "Guess": 5402, "ĠRandy": 5403, "Ġvalleys": 5404, "ÅĵMummy": 5405, "Ġsculpture": 5406, "Ġadj": 5407, "Ġgooey": 5408, "Ġgalloped": 5409, "ĠBuster": 5410, "Ġscrubbing": 5411, "Ġbabysitter": 5412, "ics": 5413, "ĠJonathan": 5414, "Martha": 5415, "Ġshaky": 5416, "ĠLucas": 5417, "Ġglows": 5418, "Luna": 5419, "Ġscrunched": 5420, "form": 5421, "Ġcarefree": 5422, "ĠLibby": 5423, "ĠhadnÃ¢": 5424, "sp": 5425, "Ġcinema": 5426, "Ġhalfway": 5427, "ĠSandra": 5428, "Ġenclosure": 5429, "ItÃ¢": 5430, "Ġhalves": 5431, "Ġpearls": 5432, "Ġgladly": 5433, "Ġcrushed": 5434, "Right": 5435, "Ġtoppings": 5436, "Ġenjoys": 5437, "Ġcalf": 5438, "Ġgrandkids": 5439, "ĠRobin": 5440, "sa": 5441, "ĠFaith": 5442, "Ġrightful": 5443, "ĠRita": 5444, "ĠPlay": 5445, "ĠMaisie": 5446, "Ġgradually": 5447, "âĤ¬âĦ¢.": 5448, "Ġactors": 5449, "Ġsweetness": 5450, "ĠSal": 5451, "Ġthrill": 5452, "Chris": 5453, "ÅĵGo": 5454, "Ġpounding": 5455, "Matt": 5456, "Ġcommunity": 5457, "Michael": 5458, "flies": 5459, "do": 5460, "ĠBouncy": 5461, "Ġchug": 5462, "Ġwoodp": 5463, "udrey": 5464, "Ġdesc": 5465, "Ġlightly": 5466, "umn": 5467, "Ġplatform": 5468, "ÅĵWill": 5469, "Coco": 5470, "Ġfanc": 5471, "ĠNurse": 5472, "Ġcamps": 5473, "Ralph": 5474, "Ġdrill": 5475, "ĠMuffin": 5476, "ĠCarefully": 5477, "Ġgod": 5478, "Ġshimmered": 5479, "Ġfrisbee": 5480, "Without": 5481, "Ġmischief": 5482, "Ġfunniest": 5483, "Pe": 5484, "Ġnudged": 5485, "Ġdedication": 5486, "Ġpetal": 5487, "Ġscowled": 5488, "Â©": 5489, "Ġexercising": 5490, "Ġunload": 5491, "clock": 5492, "Ġmajestic": 5493, "Ġatmosphere": 5494, "ĠAmi": 5495, "ĠToys": 5496, "Mina": 5497, "Simon": 5498, "ĠSkip": 5499, "Jackie": 5500, "Ġtwitched": 5501, "Ġreality": 5502, "Ġcampsite": 5503, "gly": 5504, "ĠPiggy": 5505, "ylan": 5506, "Ġfuss": 5507, "beh": 5508, "Ġtwelve": 5509, "Ribbit": 5510, "Ġventure": 5511, "Janie": 5512, "ĠLightning": 5513, "ĠWant": 5514, "ĠChew": 5515, "Ġpopsicle": 5516, "Ġdevast": 5517, "Ġoverheard": 5518, "Ġcrunch": 5519, "Ġonline": 5520, "Ġcrispy": 5521, "Ġnightstand": 5522, "Ġpancake": 5523, "Ġdustpan": 5524, "Friends": 5525, "Ġtwirls": 5526, "ĠWiggly": 5527, "ĠInstantly": 5528, "Ġconnect": 5529, "ÅĵWait": 5530, "Ġscrape": 5531, "Ġcomplimented": 5532, "Ġinvol": 5533, "Ġdevastated": 5534, "ĠJennifer": 5535, "Ġtotally": 5536, "ĠMus": 5537, "Ġsleeve": 5538, "ĠMinnie": 5539, "Rain": 5540, "Ġyuck": 5541, "Ġenergized": 5542, "Tur": 5543, "Ġoverflow": 5544, "ĠMac": 5545, "Ġcompeting": 5546, "ĠFran": 5547, "rust": 5548, "Ġaddition": 5549, "Enjoy": 5550, "aylor": 5551, "Rabbit": 5552, "Ġservice": 5553, "Ġreaction": 5554, "urple": 5555, "Ġcarnival": 5556, "dging": 5557, "Ġdodging": 5558, "ĠbirdÃ¢": 5559, "Ġsolid": 5560, "Ġ20": 5561, "Ġsnip": 5562, "Silly": 5563, "Davey": 5564, "ĠLucyÃ¢": 5565, "ĠGwen": 5566, "Ġcruel": 5567, "ki": 5568, "ĠKyle": 5569, "Ġtripping": 5570, "Ġobl": 5571, "Ġspice": 5572, "Ġswoop": 5573, "Ġanybody": 5574, "Ġfreshly": 5575, "ta": 5576, "ey": 5577, "Ġwoodpecker": 5578, "Ġinjuries": 5579, "Ġlength": 5580, "Ġnug": 5581, "Samantha": 5582, "ĠPaws": 5583, "Ġspied": 5584, "Ġsquawked": 5585, "Ġhowl": 5586, "ocolate": 5587, "Ice": 5588, "Sir": 5589, "Ġsizz": 5590, "Laura": 5591, "ĠPop": 5592, "ĠNature": 5593, "Ġvacu": 5594, "Ġsupplying": 5595, "Make": 5596, "Ġstomachs": 5597, "Ġchattered": 5598, "Ġpresence": 5599, "Ġexhibit": 5600, "Ġpolka": 5601, "Ġurging": 5602, "Sleep": 5603, "Ġsuspicious": 5604, "ĠYoga": 5605, "Ġgliding": 5606, "Ġ9": 5607, "Ġbackward": 5608, "ĠCro": 5609, "Carl": 5610, "Ġchampion": 5611, "Ġdelightful": 5612, "ĠRaven": 5613, "Ahh": 5614, "Everybody": 5615, "More": 5616, "ĠAf": 5617, "field": 5618, "ĠCars": 5619, "Ġexplode": 5620, "rnie": 5621, "Ġtut": 5622, "Ġdisagreeing": 5623, "ĠGrumpy": 5624, "ÅĵMe": 5625, "Ġsnowflake": 5626, "Ġsquirmed": 5627, "ĠMint": 5628, "elsey": 5629, "Ġworkshop": 5630, "Ġpossession": 5631, "Ġreckless": 5632, "Ġaback": 5633, "Ġbuys": 5634, "Ġoars": 5635, "ÅĵJohn": 5636, "tock": 5637, "Ġlurking": 5638, "ĠTurtle": 5639, "ĠShadow": 5640, "Ġshortcut": 5641, "Ġdayd": 5642, "ĠFriendship": 5643, "ĠMatthew": 5644, "Ġtours": 5645, "Ġsells": 5646, "Bird": 5647, "Ġnuggets": 5648, "ThatÃ¢": 5649, "ildren": 5650, "Ġinno": 5651, "Ġrunny": 5652, "Ġhandlebars": 5653, "ĠBenj": 5654, "Ġtumbling": 5655, "Larry": 5656, "Pam": 5657, "ÅĵHere": 5658, "Ġsnowing": 5659, "ĠPuddles": 5660, "Ġpainful": 5661, "adowing": 5662, "OO": 5663, "NG": 5664, "Poor": 5665, "Ġsquish": 5666, "Ġdarted": 5667, "Ġstudio": 5668, "Ġlantern": 5669, "ĠWorking": 5670, "Ġshuff": 5671, "Whoa": 5672, "Ġdroop": 5673, "ĠChicky": 5674, "Ġhoneycom": 5675, "thur": 5676, "urt": 5677, "ĠAlbert": 5678, "ya": 5679, "ĠPanda": 5680, "Ġpurchase": 5681, "Mae": 5682, "ĠDV": 5683, "Ġgruff": 5684, "ĠBea": 5685, "Ġscaly": 5686, "Ġdisgusted": 5687, "ĠDVD": 5688, "Friend": 5689, "areful": 5690, "Ġpotty": 5691, "Ph": 5692, "Ġsupermarket": 5693, "ĠsheÃ¢": 5694, "Out": 5695, "Mon": 5696, "Bubbles": 5697, "Ġsickness": 5698, "Should": 5699, "Ġglimmer": 5700, "Lia": 5701, "ĠDuke": 5702, "Ġsurrounding": 5703, "Ġhabit": 5704, "Ġcarve": 5705, "Ġhurtful": 5706, "ĠStret": 5707, "Beware": 5708, "ĠPain": 5709, "ĠJoanne": 5710, "rystal": 5711, "Ġpudding": 5712, "Ġhuff": 5713, "ĠNoah": 5714, "Hooray": 5715, "Todd": 5716, "imba": 5717, "rateful": 5718, "Wake": 5719, "Magic": 5720, "ĠLydia": 5721, "Ġhideout": 5722, "Ġclutched": 5723, "Ġtutu": 5724, "ĠRock": 5725, "Abi": 5726, "Ġcurves": 5727, "okay": 5728, "Ġstomping": 5729, "Chirpy": 5730, "Ġautumn": 5731, "aj": 5732, "ĠThunder": 5733, "ĠEating": 5734, "Ġslightly": 5735, "ĠGreg": 5736, "ĠBlink": 5737, "smelling": 5738, "Ġescap": 5739, "Ġsquawk": 5740, "Ġdistract": 5741, "Ever": 5742, "Ġsaxophone": 5743, "Ġembrace": 5744, "rustrated": 5745, "Ġescaping": 5746, "Ġdiscussion": 5747, "Ġjaws": 5748, "Ġwicked": 5749, "ĠPaw": 5750, "ĠWilma": 5751, "Ġdevice": 5752, "Ġlaunch": 5753, "Ġglistened": 5754, "aitlyn": 5755, "Sharing": 5756, "Ġwetter": 5757, "Ġfist": 5758, "believe": 5759, "ĠCuddles": 5760, "Ġsettling": 5761, "Ġharvest": 5762, "ÅĵRemember": 5763, "uliar": 5764, "Ġpeculiar": 5765, "Ġpuffed": 5766, "Ġsucceeding": 5767, "Ġscolding": 5768, "ĠWise": 5769, "Ġlumpy": 5770, "Ġruffled": 5771, "Ġgrinning": 5772, "Ġchewy": 5773, "Jazz": 5774, "Ġinterrupted": 5775, "Ġscooping": 5776, "Ġsaddle": 5777, "Ġmixes": 5778, "Granny": 5779, "ĠGeor": 5780, "ĠJuice": 5781, "giving": 5782, "Min": 5783, "Nutty": 5784, "Ġhoneycomb": 5785, "ĠSyl": 5786, "Climb": 5787, "ĠGreta": 5788, "ĠGerry": 5789, "ÅĵMum": 5790, "Shoo": 5791, "Zip": 5792, "ĠCleaning": 5793, "Ġshame": 5794, "Ġreappear": 5795, "Ġunfolded": 5796, "ĠAudrey": 5797, "Ġpy": 5798, "Kiki": 5799, "Ġdiv": 5800, "Fo": 5801, "Butter": 5802, "Close": 5803, "Ġtrudged": 5804, "Seeing": 5805, "ĠSqueak": 5806, "Ġchirps": 5807, "Ġharmful": 5808, "ĠSinging": 5809, "Ġjuggling": 5810, "Ġdries": 5811, "Move": 5812, "Eww": 5813, "ĠReading": 5814, "ĠAfrica": 5815, "Ġmit": 5816, "ĠRani": 5817, "ĠClare": 5818, "Using": 5819, "ĠKat": 5820, "hi": 5821, "Ġsweeping": 5822, "ĠSid": 5823, "Ġjogger": 5824, "Ġsomehow": 5825, "Ġwit": 5826, "Santa": 5827, "ĠCarrie": 5828, "Ġogre": 5829, "ĠBarky": 5830, "Ġgodmother": 5831, "igzag": 5832, "ĠAlfie": 5833, "Ġconcentrated": 5834, "ĠfriendÃ¢": 5835, "Ġpayoff": 5836, "Ġpersu": 5837, "Over": 5838, "Ġacrob": 5839, "rope": 5840, "ĠPurple": 5841, "Ġpineapple": 5842, "Ġwig": 5843, "Ġpatting": 5844, "Ġsubjects": 5845, "Ġfirewood": 5846, "Fiona": 5847, "bbie": 5848, "haps": 5849, "Ġinnocent": 5850, "ĠtheyÃ¢": 5851, "Ġapproval": 5852, "Sw": 5853, ".'\"": 5854, "ĠOak": 5855, "ĠDylan": 5856, "ĠSpirit": 5857, "ĠMusic": 5858, "ĠZe": 5859, "Finn": 5860, "ĠRick": 5861, "ĠSarahÃ¢": 5862, "Ġkneels": 5863, "Zara": 5864, "Ġindependence": 5865, "ĠHeidi": 5866, "Ġscuttled": 5867, "ĠPuppy": 5868, "Ġmoderation": 5869, "art": 5870, "Ġwriggling": 5871, "Ruth": 5872, "Jay": 5873, "Ġcreepy": 5874, "Three": 5875, "ĠTaylor": 5876, "lin": 5877, "ĠshouldnÃ¢": 5878, "Squ": 5879, "ĠIsla": 5880, "amin": 5881, "Ġextremely": 5882, "ÅĵHelp": 5883, "Confused": 5884, "ĠFather": 5885, "Ryan": 5886, "Ġcomplicated": 5887, "radually": 5888, "ĠTia": 5889, "ĠHugo": 5890, "Careful": 5891, "ĠKind": 5892, "Ġtightrope": 5893, "Ġglimp": 5894, "Ġproceeded": 5895, "Ag": 5896, "Ġwrinkly": 5897, "ĠMarcy": 5898, "ĠBubble": 5899, "ĠImagine": 5900, "Åĵyou": 5901, "Twinkle": 5902, "Floppy": 5903, "vie": 5904, "Gus": 5905, "Ġcroak": 5906, "Ġcurve": 5907, "Gigi": 5908, "Ġcurls": 5909, "Jonny": 5910, "Despite": 5911, "Ġleaping": 5912, "Ġwaitress": 5913, "war": 5914, "ruck": 5915, "Katy": 5916, "ÅĵMama": 5917, "Mmmm": 5918, "Shrink": 5919, "Ġabilities": 5920, "Eva": 5921, "Ġfishermen": 5922, "Ġpickles": 5923, "Ġnephew": 5924, "pie": 5925, "Ar": 5926, "Ġjuggle": 5927, "nels": 5928, "ĠNeither": 5929, "Ġroam": 5930, "ĠAnything": 5931, "nis": 5932, "ĠCrusty": 5933, "upid": 5934, "ĠEat": 5935, "Olive": 5936, "Ġcigarette": 5937, "Ġcult": 5938, "Ġbobbing": 5939, "Ġmotors": 5940, "ĠPo": 5941, "ĠLouie": 5942, "Ġviews": 5943, "Ġtoothpaste": 5944, "Ġguidance": 5945, "lie": 5946, "'?\"": 5947, "Ġhurrying": 5948, "Ġsquirt": 5949, "Ġbruise": 5950, "Ġlamps": 5951, "Hope": 5952, ":\"": 5953, "Ġcombing": 5954, "ĠMiles": 5955, "Phew": 5956, "Ġstylish": 5957, "vious": 5958, "Ġeff": 5959, "ĠScott": 5960, "Ġhardworking": 5961, "Ġcinnamon": 5962, "Ġtoad": 5963, "via": 5964, "Ġfavor": 5965, "Ġroast": 5966, "Ġdodges": 5967, "Ġconcentrate": 5968, "Ġsprung": 5969, "Ġtimidly": 5970, "Pinky": 5971, "Ġfading": 5972, "Ġtickly": 5973, "Gabby": 5974, "Ġpassion": 5975, "ĠJam": 5976, "Blech": 5977, "Ġcities": 5978, "Ġfixer": 5979, "ĠJumpy": 5980, "ours": 5981, "Ġanxiously": 5982, "ĠMister": 5983, "Ġzig": 5984, "Ġnightfall": 5985, "Ġcutter": 5986, "Ġpistols": 5987, "Ġcoconut": 5988, "Ġcha": 5989, "Ġresumed": 5990, "Congratulations": 5991, "Ġturkeys": 5992, "ĠShall": 5993, "ĠLady": 5994, "Ġdodge": 5995, "Ġforeshadowed": 5996, "Ġstaircase": 5997, "Ġwondrous": 5998, "Ġsnuggly": 5999, "Ġpromising": 6000, "Ġcontentedly": 6001, "Ne": 6002, "ĠMick": 6003, "Ġaccidently": 6004, "ĠPup": 6005, "Ġperked": 6006, "ĠErnie": 6007, "Ġnewly": 6008, "Ġwobbling": 6009, "Ġsetup": 6010, "Ġoverflowing": 6011, "Ġtul": 6012, "ĠKai": 6013, "athan": 6014, "ĠAd": 6015, "Ġecstatic": 6016, "Ġpartner": 6017, "cies": 6018, "ĠCrab": 6019, "ĠJohnnie": 6020, "Ġcucumbers": 6021, "Ġslithering": 6022, "Ġbegging": 6023, "ĠotherÃ¢": 6024, "ÅĵStop": 6025, "Ġchallenging": 6026, "Ten": 6027, "Ġorch": 6028, "ĠGail": 6029, "ĠThanksgiving": 6030, "ĠSimba": 6031, "Te": 6032, "ĠClub": 6033, "ĠNut": 6034, "Fly": 6035, "Ġemergencies": 6036, "Ġstripe": 6037, "ĠSister": 6038, "Ġmisbeh": 6039, "ÅĵJack": 6040, "Ġdragging": 6041, "Being": 6042, "Ġconstruction": 6043, "Ġstunned": 6044, "Ġpounce": 6045, "Ġbalcony": 6046, "Ġfixes": 6047, "ĠZigzag": 6048, "Ġshuffled": 6049, "Ġsquat": 6050, "Ġguilt": 6051, "ĠEve": 6052, "grand": 6053, "ĠOtto": 6054, "Ġorchard": 6055, "Ġclutching": 6056, "Ġgulp": 6057, "life": 6058, "Ġdestruction": 6059, "ĠGu": 6060, "RA": 6061, "Ġbending": 6062, "Eat": 6063, "ĠMargaret": 6064, "Ġfulfilled": 6065, "ĠArthur": 6066, "Ġbeeps": 6067, "ĠAlexa": 6068, "ggie": 6069, "Ġsunbur": 6070, "ĠSpider": 6071, "Ġrejo": 6072, "Maisy": 6073, "Ġherd": 6074, "ils": 6075, "Ġslurp": 6076, "Dr": 6077, "Ġsleepover": 6078, "Ġungrateful": 6079, "Ġtablecloth": 6080, "just": 6081, "Ġmagpie": 6082, "Ġappetite": 6083, "ĠcafÃĥ": 6084, "ĠDizzy": 6085, "ĠFurry": 6086, "Ġroofs": 6087, "Ġsmoky": 6088, "Ġinfection": 6089, "Ġbarbecue": 6090, "than": 6091, "ĠNibbles": 6092, "Ġunlike": 6093, "Ġgallop": 6094, "Ġglimpse": 6095, "JohnÃ¢": 6096, "mill": 6097, "!,\"": 6098, "Ġawaited": 6099, "?,\"": 6100, "Ġsquatted": 6101, "Ġacrobats": 6102, "Ġattempt": 6103, "ĠLand": 6104, "ĠWiggles": 6105, "nn": 6106, "Ġinvolved": 6107, "Ġadmitted": 6108, "Frog": 6109, "Ġbarrels": 6110, "ĠAngie": 6111, "Ġreleasing": 6112, "Ġbehold": 6113, "ĠDiana": 6114, "ĠwerenÃ¢": 6115, "ÅĵJust": 6116, "ĠAB": 6117, "wow": 6118, "Ġelbows": 6119, "Ġsilk": 6120, "cling": 6121, "Ġbackground": 6122, "ĠABC": 6123, "ĠToni": 6124, "onk": 6125, "ÅĵDaddy": 6126, "ĠDaisyÃ¢": 6127, "ĠDinner": 6128, "Ġchatter": 6129, "Ġmurky": 6130, "ĠMelody": 6131, "ĠPromise": 6132, "ĠRuff": 6133, "ĠMuch": 6134, "ĠDancing": 6135, "ĠCream": 6136, "cious": 6137, "ĠLast": 6138, "ĠRupert": 6139, "ĠFaye": 6140, "ĠDina": 6141, "ĠPizza": 6142, "ĠNia": 6143, "Say": 6144, "Ġyelps": 6145, "ĠStripey": 6146, "Ġcoolness": 6147, "ami": 6148, "Ġoutcome": 6149, "Boun": 6150, "ĠMarcus": 6151, "ĠDawn": 6152, "ĠRoxy": 6153, "Ġquality": 6154, "Ġobliged": 6155, "11": 6156, "Kelly": 6157, "WhatÃ¢": 6158, "Use": 6159, "Ġprinc": 6160, "ĠPark": 6161, "Ġyielding": 6162, "ĠBailey": 6163, "ĠKelsey": 6164, "Ġcombined": 6165, "Ġsawing": 6166, "Ġbreadc": 6167, "welcome": 6168, "hand": 6169, "Ġ12": 6170, "ĠIvy": 6171, "ĠLayla": 6172, "Ġmarveling": 6173, "Ġvacuum": 6174, "ipe": 6175, "Ġgrownup": 6176, "iko": 6177, "ĠCake": 6178, "Ġshrimps": 6179, "ĠKaylee": 6180, "ĠGia": 6181, "Ġeyeshadow": 6182, "Ġ911": 6183, "ĠPlus": 6184, ".''": 6185, "SH": 6186, "Ġerupt": 6187, "ĠGilly": 6188, "ĠPig": 6189, "ĠRichard": 6190, "Ġ8": 6191, "ĠNan": 6192, "loat": 6193, "Freeze": 6194, "Ġreceiving": 6195, "Ġglinting": 6196, "Ġnuzzles": 6197, "Ġalb": 6198, "Ġtending": 6199, "ixie": 6200, "Ġmarvel": 6201, "Ġcarelessly": 6202, "ĠGloria": 6203, "Ġraisins": 6204, "ĠTippy": 6205, "Ġembarrassment": 6206, "Ġclothesline": 6207, "Mickey": 6208, "Ġprincipal": 6209, "Brrr": 6210, "Ġ(": 6211, "ĠStephanie": 6212, "Ġcompliment": 6213, "Ġfifty": 6214, "Ġwasteful": 6215, "Ġgleaming": 6216, "Megan": 6217, "ĠCrystal": 6218, "ĠHelping": 6219, "Holly": 6220, "Ġstrut": 6221, "Ġafloat": 6222, "Zero": 6223, "ĠKindness": 6224, "ĠAsked": 6225, "Behind": 6226, "Ġrejoiced": 6227, "mith": 6228, "Ġunsc": 6229, "ĠAnimals": 6230, "ĠdadÃ¢": 6231, "ĠPeace": 6232, "ĠSamÃ¢": 6233, "ĠLilyÃ¢": 6234, "Ġbreadcrumbs": 6235, "ĠThough": 6236, "Ġretrieved": 6237, "Ġmessier": 6238, "Ġcleverness": 6239, "Ġjacks": 6240, "ĠAaron": 6241, "ĠErin": 6242, "ĠLexi": 6243, "ĠDebbie": 6244, "vor": 6245, "ĠPaige": 6246, "Ġhurriedly": 6247, "Love": 6248, "flower": 6249, "ulously": 6250, "ĠTurn": 6251, "ĠLauren": 6252, "ĠStretch": 6253, "Fido": 6254, "ĠJesus": 6255, "ĠKara": 6256, "Pick": 6257, "Ġfondly": 6258, "trigued": 6259, "ĠCoal": 6260, "Ġtiredness": 6261, "ĠBobbi": 6262, "Ġassured": 6263, "retched": 6264, "Ġeleven": 6265, "Ly": 6266, "Jason": 6267, "Ġswift": 6268, "Ġ7": 6269, "Ġsounding": 6270, "Ġrattle": 6271, "ĠthereÃ¢": 6272, "ĠBenjamin": 6273, "Ġendless": 6274, "Ġsniffling": 6275, "Ġchaos": 6276, "ĠMadeline": 6277, "Ġresolved": 6278, "pole": 6279, "Ġdice": 6280, "ĠLouis": 6281, "awk": 6282, "Ġcocked": 6283, "Ġremoving": 6284, "!'\"": 6285, "ÅĵBye": 6286, "Lina": 6287, "Ġregretful": 6288, "ĠGradually": 6289, "ĠAfterward": 6290, "Ġadvantage": 6291, "Luc": 6292, "OP": 6293, "Ġinjury": 6294, "Louise": 6295, "Ġcartwheel": 6296, "Ġglide": 6297, "ĠGertie": 6298, "Elsa": 6299, "Nancy": 6300, "Mo": 6301, "Ġwilted": 6302, "ĠAsk": 6303, "ĠMaxine": 6304, "Grab": 6305, "ding": 6306, "Ġunlucky": 6307, "ĠBugs": 6308, "Ġhyd": 6309, "Ġcrackling": 6310, "Mamma": 6311, "Ġdrown": 6312, "uriosity": 6313, "Ġoutstretched": 6314, "ĠNathan": 6315, "Ġnightlight": 6316, "Far": 6317, "De": 6318, "uh": 6319, "Ġcornfield": 6320, "Through": 6321, "ĠMild": 6322, "Ġdandelion": 6323, "Ali": 6324, "Ġthousands": 6325, "Ġexisted": 6326, "Ġsheepish": 6327, "Gracie": 6328, "Ġsul": 6329, "ga": 6330, "ĠJunior": 6331, "Brian": 6332, "ĠPrune": 6333, "Ġsecretly": 6334, "Ginger": 6335, "Ġpreferred": 6336, "Ġdeepest": 6337, "Ġkernels": 6338, "Charlotte": 6339, "ĠMarco": 6340, "who": 6341, "ĠTip": 6342, "ĠFuzz": 6343, "William": 6344, "ĠJade": 6345, "ibi": 6346, "Ġpadlock": 6347, "fect": 6348, "Ġwhisk": 6349, "Ġrevenge": 6350, "nowing": 6351, "Ġluxurious": 6352, "Ġstalls": 6353, "Grow": 6354, "Ricky": 6355, "Ding": 6356, "ĠJaneÃ¢": 6357, "friend": 6358, "lick": 6359, "Ġslime": 6360, "ĠBeatrice": 6361, "Up": 6362, "Ġreins": 6363, "Ġimpatiently": 6364, "Ġforeshadowing": 6365, "Ġsprinted": 6366, "Fox": 6367, "ĠWriting": 6368, "Ġflipping": 6369, "ĠStu": 6370, "ĠFris": 6371, "ĠSpotty": 6372, "ointed": 6373, "ĠFaster": 6374, "Ġdev": 6375, "Ġmoist": 6376, "ĠChewy": 6377, "ĠSocky": 6378, "ĠLacey": 6379, "Ġchildhood": 6380, "Ġstorybook": 6381, "Ġbelief": 6382, "Ġvendors": 6383, "Ava": 6384, "Ġhint": 6385, "Greetings": 6386, "Ġhungrier": 6387, "ĠPuff": 6388, "Girl": 6389, "assie": 6390, "Ġgoblin": 6391, "ikki": 6392, "ĠCharles": 6393, "Ġposition": 6394, "ĠMarc": 6395, "ĠDown": 6396, "Ġalphabet": 6397, "Jax": 6398, "Ġcloak": 6399, "Ġamusement": 6400, "Ġheadphones": 6401, "alter": 6402, "Ġalbum": 6403, "aleb": 6404, "Ġretrieve": 6405, "Ġjay": 6406, "ĠButtons": 6407, "Ġconfron": 6408, "Rebecca": 6409, "Ġdiligent": 6410, "orget": 6411, "ĠBurt": 6412, "ĠSilver": 6413, "ĠRino": 6414, "Ġimaginative": 6415, "Ġbenef": 6416, "AP": 6417, "Ġforgetful": 6418, "ĠmommyÃ¢": 6419, "Ġresources": 6420, "Ġcucumber": 6421, "Ġhuffed": 6422, "Ġpostcard": 6423, "IÃ¢": 6424, "Ray": 6425, "Ġmini": 6426, "ĠMichelle": 6427, "Ġthoughtfulness": 6428, "Ġdisappoint": 6429, "Ġattract": 6430, "ĠEmmie": 6431, "Until": 6432, "Ġcalmness": 6433, "ĠTabby": 6434, "ĠSaf": 6435, "ĠSalt": 6436, "Bo": 6437, "Push": 6438, "Ġuneasy": 6439, "Life": 6440, "Ġdisturbance": 6441, "ĠCody": 6442, "Ġdescribed": 6443, "freeze": 6444, "Ġcoiled": 6445, "Ty": 6446, "Ġunwrap": 6447, "Ġrev": 6448, "ĠZog": 6449, "orgettable": 6450, "woo": 6451, "Binky": 6452, "Ġsunbe": 6453, "Ġassistant": 6454, "Ġzone": 6455, "Mila": 6456, "Ġshaving": 6457, "Ġparamedics": 6458, "Ġwarriors": 6459, "Olivia": 6460, "!''": 6461, "Ġgrumpiness": 6462, "ĠCar": 6463, "Though": 6464, "Ġchugging": 6465, "Ġic": 6466, "Ġopportunities": 6467, "rint": 6468, "Ġfaithful": 6469, "Ġunforgettable": 6470, "ĠAbbi": 6471, "ĠBarney": 6472, "Ġskulls": 6473, "ently": 6474, "Ġmostly": 6475, "Ġsurfer": 6476, "Ġjingle": 6477, "ifferent": 6478, "Ġtrapping": 6479, "Flopsy": 6480, "olk": 6481, "Jan": 6482, "EE": 6483, "Fuzzy": 6484, "ĠTrevor": 6485, "ÃĤ": 6486, "Ġunzip": 6487, "Ġovernight": 6488, "Cara": 6489, "ĠHippo": 6490, "Judy": 6491, "ĠMilk": 6492, "ĠMei": 6493, "oebe": 6494, "Åĵhello": 6495, "ÅĵW": 6496, "DonÃ¢": 6497, "Ġponytail": 6498, "isappointed": 6499, "pilot": 6500, "Ġsurfed": 6501, "Ġdim": 6502, "ĠCuriosity": 6503, "Kevin": 6504, "ĠPa": 6505, "Ġscrunch": 6506, "Ġmailboxes": 6507, "Ġsession": 6508, "ĠAlfred": 6509, "Ġrunway": 6510, "Ġreflecting": 6511, "ĠSheila": 6512, "Nana": 6513, "ĠNew": 6514, "asmine": 6515, "ĠJoeÃ¢": 6516, "sie": 6517, "ĠTomÃ¢": 6518, "Ġpersisted": 6519, "bang": 6520, "Ġmitts": 6521, "Ġdoubt": 6522, "dney": 6523, "Ġdesire": 6524, "Ġannouncement": 6525, "Meg": 6526, "Pandy": 6527, "ĠWanna": 6528, "Ġpea": 6529, "God": 6530, "Ġko": 6531, "Ġdroopy": 6532, "ĠSylvia": 6533, "Ġunsafe": 6534, "ĠLynn": 6535, "ĠBibi": 6536, "Caw": 6537, "Pop": 6538, "Ġunstuck": 6539, "Ġstroking": 6540, "Ġdizz": 6541, "ĠAdvent": 6542, "Ġdazzling": 6543, "Down": 6544, "izmo": 6545, "ĠEthan": 6546, "bastian": 6547, "ĠMa": 6548, "ĠTheo": 6549, "Ġ$": 6550, "Everywhere": 6551, "ĠTap": 6552, "tw": 6553, "Ġdizziness": 6554, "ĠmumÃ¢": 6555, "Ġreassuring": 6556, "ĠAlicia": 6557, "ĠFlying": 6558, "AR": 6559, "Ġbumblebee": 6560, "Ġsipping": 6561, "Ġharshly": 6562, "Ġeverytime": 6563, "Ġsentence": 6564, "Ġstomps": 6565, "Kay": 6566, "Ġcoughs": 6567, "Ġdoorknob": 6568, "ĠFanny": 6569, "ĠWonder": 6570, "ĠPickles": 6571, "cha": 6572, "Jojo": 6573, "ok": 6574, "Ġ100": 6575, "ĠDare": 6576, "ĠCrocod": 6577, "Tuna": 6578, "Ġrattling": 6579, "Ġwaddling": 6580, "ĠHerb": 6581, "ĠKe": 6582, "ĠĠĠĠĠ": 6583, "ĠIg": 6584, "ÅĵSometimes": 6585, "Ġtumble": 6586, "ĠBug": 6587, "Ġconquer": 6588, "ĠPump": 6589, "Hours": 6590, "ĠFrustrated": 6591, "Ġsunburn": 6592, "Ġsprinkling": 6593, "Ġfiguring": 6594, "Ġ15": 6595, "ĠWinter": 6596, "Ġ.": 6597, "Bubba": 6598, "Ġappoin": 6599, "Ġplaymate": 6600, "ĠLillie": 6601, "zo": 6602, "ĠMitch": 6603, "Ġsizzle": 6604, "Thankfully": 6605, "ĠOxygen": 6606, "Ġmotorb": 6607, "ÅĵWhoÃ¢": 6608, "Ġdecre": 6609, "ĠEng": 6610, "ĠBark": 6611, "ĠLo": 6612, "Quickly": 6613, "ĠRiding": 6614, "Ġwildly": 6615, "Ġspatula": 6616, "Izzy": 6617, "ruffy": 6618, "Yesterday": 6619, "ĠKnowing": 6620, "Ġregister": 6621, "Ġfortunate": 6622, "ippee": 6623, "agged": 6624, "Ġtackle": 6625, "Ġvows": 6626, "Ġdue": 6627, "Ġfoss": 6628, "iraffe": 6629, "Ġ6": 6630, "ĠBall": 6631, "Ġfarmhouse": 6632, "ĠNumber": 6633, "Ġjiggled": 6634, "Ġcrackle": 6635, "Ġinternet": 6636, "Ġwildlife": 6637, "Ġsurgery": 6638, "Five": 6639, "Zoo": 6640, "ĠChocolate": 6641, "Ring": 6642, "Ġsheepishly": 6643, "NAP": 6644, "Randy": 6645, "Ġechoing": 6646, "Ġchuckle": 6647, "Ġhamburger": 6648, "Sc": 6649, "ĠIntrigued": 6650, "Ġslither": 6651, "ĠSpicy": 6652, "Lion": 6653, "acamole": 6654, "Rufus": 6655, "ĠEli": 6656, "ĠBobÃ¢": 6657, "Pizza": 6658, "ĠHeÃ¢": 6659, "haw": 6660, "Penelope": 6661, "Ġkoala": 6662, "Ġappointment": 6663, "Ġexplosion": 6664, "owner": 6665, "Ġyummier": 6666, "ĠJellyfish": 6667, "Ġuncertain": 6668, "Ġweave": 6669, "Amber": 6670, "iscuit": 6671, "Pass": 6672, "Ġloaf": 6673, "Ġtoddled": 6674, "Ġmatchbox": 6675, "Ġwriggle": 6676, "Ġsurge": 6677, "CRA": 6678, "Ġsuperp": 6679, "Ġcultures": 6680, "Ġguacamole": 6681, "ĠKarl": 6682, "Ġweaving": 6683, "Ġfulf": 6684, "Imagine": 6685, "Ġtinkling": 6686, "Ġguiding": 6687, "Ġzigzagging": 6688, "Ġjack": 6689, "Ġointment": 6690, "Ġpunched": 6691, "Sasha": 6692, "Ġgleefully": 6693, "ĠCrane": 6694, "Eric": 6695, "ĠCotton": 6696, "Ġtwinkly": 6697, "Ġ30": 6698, "Play": 6699, "Ġtradition": 6700, "Ġkettle": 6701, "Want": 6702, "Ky": 6703, "Ġunderwear": 6704, "ĠDara": 6705, "Ġsniffles": 6706, "Ġsteadily": 6707, "Ġinqu": 6708, "Ġmuttered": 6709, "ĠClow": 6710, "od": 6711, "ĠSmiling": 6712, "Ġyellows": 6713, "Ġmirrors": 6714, "Ġwaddle": 6715, "ĠGaby": 6716, "Ġhula": 6717, "Ġswished": 6718, "ĠSissy": 6719, "Ġkeyboard": 6720, "ĠKit": 6721, "ĠAgnes": 6722, "iya": 6723, "ĠpeopleÃ¢": 6724, "Riley": 6725, "give": 6726, "Aww": 6727, "ĠTimmyÃ¢": 6728, "Ġoutrun": 6729, "ĠFun": 6730, "Ġfifteen": 6731, "Ġchunk": 6732, "Ġstrutted": 6733, "Ġwetness": 6734, "ruit": 6735, "ĠmotherÃ¢": 6736, "ĠWoolly": 6737, "Ġgnome": 6738, "ĠReggie": 6739, "ĠEverytime": 6740, "Ġseahorse": 6741, "Ġwindmill": 6742, "Ġcrows": 6743, "Ġbasil": 6744, "ĠGeorgie": 6745, "Ġticklish": 6746, "icity": 6747, "Ġpressure": 6748, "ĠBiff": 6749, "Ġtherapist": 6750, "Ġoffic": 6751, "Ġrecognizing": 6752, "Jasmine": 6753, "Ġloss": 6754, "ĠbearÃ¢": 6755, "ĠABCs": 6756, "Ġspectacular": 6757, "Barry": 6758, "'!\"": 6759, "Ġfiretruck": 6760, "Ġproduce": 6761, "Ġrazors": 6762, "Ġsibling": 6763, "leo": 6764, "Ġcopying": 6765, "Ġuncover": 6766, "Ġfascination": 6767, "Ġparcel": 6768, "Ġmajesty": 6769, "ĠCelery": 6770, "Ġcock": 6771, "Squeaky": 6772, "ĠHouse": 6773, "reckles": 6774, "ĠWork": 6775, "ĠApple": 6776, "ĠBull": 6777, "belief": 6778, "ĠWar": 6779, "Ġdivided": 6780, "ĠWhale": 6781, "Ġwonderland": 6782, "Butterfly": 6783, "Ġdistress": 6784, "Ġdew": 6785, "ĠEdward": 6786, "ĠGinny": 6787, "Mister": 6788, "Ju": 6789, "Farmer": 6790, "Ġsubt": 6791, "Ġshyness": 6792, "Ġwitness": 6793, "Ġtorch": 6794, "Slow": 6795, "Ġsis": 6796, "ragile": 6797, "ST": 6798, "ĠLying": 6799, "ĠSamuel": 6800, "Ġhasn": 6801, "oison": 6802, "Leah": 6803, "Ġgoldfish": 6804, "ĠBeef": 6805, "Ġblacksmith": 6806, "Um": 6807, "Ġdismay": 6808, "ĠClucky": 6809, "Ġagreeing": 6810, "Ġencounter": 6811, "Kenny": 6812, "Ġecho": 6813, "Ġpersonality": 6814, "ÅĵHe": 6815, "Ġgigantic": 6816, "Ġdisbelief": 6817, "mit": 6818, "ĠShrimp": 6819, "Tammy": 6820, "Ġskateboard": 6821, "ĠHorse": 6822, "ĠLara": 6823, "ravo": 6824, "Bravo": 6825, "Ġaqu": 6826, "ĠGrandmother": 6827, "happy": 6828, "Ġbrief": 6829, "Eddie": 6830, "Ġeagerness": 6831, "Chocolate": 6832, "ĠCaterpillar": 6833, "omi": 6834, "Ġrhyme": 6835, "Ġmedium": 6836, "Ġstreak": 6837, "Ġnighttime": 6838, "two": 6839, "Ġflitting": 6840, "Bounce": 6841, "ĠButterflies": 6842, "ĠGizmo": 6843, "Toys": 6844, "Ġpasture": 6845, "ĠRad": 6846, "Nate": 6847, "Lu": 6848, "ĠLana": 6849, "ĠSari": 6850, "ĠLacy": 6851, "ĠSNAP": 6852, "Father": 6853, "Ġashore": 6854, "Ġevenly": 6855, "Princess": 6856, "apping": 6857, "ĠMaxÃ¢": 6858, "Ġpathway": 6859, "Ġhandkerchie": 6860, "Ġhandkerchief": 6861, "Ġbid": 6862, "Ġdirectly": 6863, "ÅĵDid": 6864, "Ġhairstyle": 6865, "meow": 6866, "ĠdayÃ¢": 6867, "Ġflagpole": 6868, "Ġdoghouse": 6869, "ĠSebastian": 6870, "aomi": 6871, "Stupid": 6872, "Ġspeechless": 6873, "Gotcha": 6874, "ĠClimbing": 6875, "Teacher": 6876, "Ġgolfer": 6877, "ĠCluck": 6878, "Squirrel": 6879, "Ġanchors": 6880, "Ġhelpfulness": 6881, "ĠBroccoli": 6882, "ĠHome": 6883, "Ġcitizens": 6884, "ĠSharks": 6885, "new": 6886, "Ġcompost": 6887, "ĠEs": 6888, "ÅĵGive": 6889, "ĠHun": 6890, "ĠBossy": 6891, "ĠScruffy": 6892, "ĠBecca": 6893, "Ġhideaway": 6894, "three": 6895, "King": 6896, "ĠSurprisingly": 6897, "Ġprofess": 6898, "minded": 6899, "Ġgalaxies": 6900, "Ġgrunted": 6901, "ĠFriday": 6902, "Ġhandfuls": 6903, "ĠUniversity": 6904, "cloth": 6905, "ĠSnowf": 6906, "ĠHor": 6907, "Ġmopping": 6908, "ĠWool": 6909, "Ġbeekeeper": 6910, "rude": 6911, "ĠCaleb": 6912, "ĠTwist": 6913, "baby": 6914, "Ġoar": 6915, "Ġcash": 6916, "ĠfamilyÃ¢": 6917, "Flo": 6918, "Ġsuppose": 6919, "Tyler": 6920, "ÅĵYum": 6921, "fway": 6922, "Turn": 6923, "ANG": 6924, "Repeat": 6925, "armed": 6926, "Shut": 6927, "ĠLancelot": 6928, "Ġmassive": 6929, "Ġpyjamas": 6930, "for": 6931, "ĠHot": 6932, "Ġobvious": 6933, "Ġdying": 6934, "Ġreferee": 6935, "Ġpesky": 6936, "Ġclipboard": 6937, "ĠWalter": 6938, "Ġmotorbike": 6939, "April": 6940, "ĠPhoebe": 6941, "Ġsmir": 6942, "ĠDale": 6943, "Ġboast": 6944, "Ġsilverware": 6945, "Ġsplattered": 6946, "Ġsunb": 6947, "Ġplea": 6948, "Ġchalkboard": 6949, "wis": 6950, "ĠBiscuit": 6951, "ĠGeorg": 6952, "ĠBumble": 6953, "Ġfortune": 6954, "Ġrowboat": 6955, "Ġglossy": 6956, "treating": 6957, "ĠLego": 6958, "Ġshoebox": 6959, "ĠSpeed": 6960, "ĠGlass": 6961, "fed": 6962, "Ġunscrewed": 6963, "Ġwoodland": 6964, "Ġrequ": 6965, "ÅĵGreat": 6966, "Yippee": 6967, "Wisdom": 6968, "Many": 6969, "Ġillness": 6970, "Ġunharmed": 6971, "Ġtyping": 6972, "Ġboldly": 6973, "Ġwilt": 6974, "ĠScarlett": 6975, "ĠLill": 6976, "ritz": 6977, "ĠCelia": 6978, "Ġdemonstrated": 6979, "gh": 6980, "Ashley": 6981, "Mix": 6982, "ĠDifferent": 6983, "Ġpolicy": 6984, "Ġpersuade": 6985, "bun": 6986, "ÅĵToday": 6987, "Ġgrizzly": 6988, "ĠCl": 6989, "ĠFreckles": 6990, "Warning": 6991, "ĠFerris": 6992, "ssa": 6993, "Fun": 6994, "Ġdescribe": 6995, "Ġwatchful": 6996, "Ġpew": 6997, "ĠPumpkin": 6998, "'!": 6999, "Ġcockpit": 7000, "ĠCount": 7001, "Åĵyes": 7002, "Oink": 7003, "Rocky": 7004, "Ed": 7005, "goodbye": 7006, "ĠTad": 7007, "ĠNikki": 7008, "ÅĵP": 7009, "hh": 7010, "Ġslim": 7011, "Se": 7012, "Ġlimping": 7013, "Ġmoss": 7014, "Ġspiral": 7015, "ÅĵOne": 7016, "Ġpigtails": 7017, "Ġgroan": 7018, "girl": 7019, "ĠSoap": 7020, "ĠGenie": 7021, "ĠPirate": 7022, "rea": 7023, "ĠDiane": 7024, "Woo": 7025, "Ġthousand": 7026, "ÅĵSorry": 7027, "Ġapologizing": 7028, "ĠEnglish": 7029, "ĠChad": 7030, "Ġaquarium": 7031, "Ġbulls": 7032, "Ġphrase": 7033, "Ġgiddy": 7034, "back": 7035, "NO": 7036, "Dinner": 7037, "ĠWanda": 7038, "ĠSmiley": 7039, "Ġwashcloth": 7040, "ĠPeach": 7041, "Ġhungrily": 7042, "ĠLaser": 7043, "baa": 7044, "ÅĵReady": 7045, "ĠClown": 7046, "Gemma": 7047, "Ġdaydreaming": 7048, "vo": 7049, "Ġunb": 7050, "ulb": 7051, "Ġchessboard": 7052, "yum": 7053, "ĠCasey": 7054, "Ġtulips": 7055, "Avery": 7056, "Kara": 7057, "Ġcarving": 7058, "Ġconc": 7059, "Ġheartbeat": 7060, "ÅĵTom": 7061, "Ġrevved": 7062, "ĠSwan": 7063, "ĠOfficer": 7064, "ĠRazor": 7065, "Ġphotographer": 7066, "Frustrated": 7067, "Ġinspiration": 7068, "Ġslingshot": 7069, "Ġupcoming": 7070, "Heidi": 7071, "Ġunplugged": 7072, "Violet": 7073, "ÅĵTake": 7074, "Snap": 7075, "ĠSharon": 7076, "Ken": 7077, "Ġtwitching": 7078, "Wally": 7079, "Mick": 7080, "Ġinh": 7081, "Water": 7082, "ĠSomewhere": 7083, "ĠOtter": 7084, "?''": 7085, "uss": 7086, "Ġdribble": 7087, "Sm": 7088, "EEP": 7089, "ĠSallyÃ¢": 7090, "Eliza": 7091, "Ġbubblegum": 7092, "ÅĵMax": 7093, "Elsie": 7094, "Andrew": 7095, "ĠDolls": 7096, "Was": 7097, "Ġspeckled": 7098, "ĠMisty": 7099, "lic": 7100, "Ġnumb": 7101, "Ġfoil": 7102, "ĠHappiness": 7103, "Ġdumps": 7104, "ĠZac": 7105, "ĠSnowflake": 7106, "ĠMiller": 7107, "Alf": 7108, "ÅĵThereÃ¢": 7109, "Ġfreeing": 7110, "ĠSit": 7111, "Park": 7112, "have": 7113, "ĠrabbitÃ¢": 7114, "because": 7115, "down": 7116, "ĠRace": 7117, "ĠLea": 7118, "Ġraspberry": 7119, "ÅĵC": 7120, "Almost": 7121, "ĠCrazy": 7122, "ĠFrench": 7123, "Sandra": 7124, "ĠBand": 7125, "ha": 7126, "Ġpublic": 7127, "Wheeee": 7128, "Ms": 7129, "ĠMollyÃ¢": 7130, "ĠCassie": 7131, "ĠMika": 7132, "oah": 7133, "Ġswooping": 7134, "Ġhandling": 7135, "Ġoutsmart": 7136, "Ġprofessional": 7137, "Ġchief": 7138, "Ġsnows": 7139, "Ġweakly": 7140, "Nurse": 7141, "Ġbonfire": 7142, "Ġbrightness": 7143, "uffs": 7144, "etti": 7145, "ĠJuan": 7146, "ĠViv": 7147, "cup": 7148, "Ġgown": 7149, "Ġcleverly": 7150, "Ġdoze": 7151, "Ġtournament": 7152, "Ġovercame": 7153, "Hmmm": 7154, "ÅĵDad": 7155, "Ġschools": 7156, "Ġshaping": 7157, "Ġreflected": 7158, "ĠThrow": 7159, "Ġstoryteller": 7160, "chug": 7161, "Wil": 7162, "list": 7163, "ĠScissors": 7164, "ĠJenkins": 7165, "Ġmeaningful": 7166, "urly": 7167, "ĠLyla": 7168, "hoo": 7169, "ĠSwimming": 7170, "ĠPainting": 7171, "known": 7172, "Ġjigsaw": 7173, "Ġcack": 7174, "Ġperhaps": 7175, "OOM": 7176, "Ġdoc": 7177, "ĠGrandmaÃ¢": 7178, "Ġarc": 7179, "Joanna": 7180, "CRASH": 7181, "Åĵthank": 7182, "raying": 7183, "ĠCut": 7184, "ĠPedro": 7185, "Sit": 7186, "Carol": 7187, "Ġmid": 7188, "ĠfriendsÃ¢": 7189, "ĠLucie": 7190, "Ġhammock": 7191, "Owl": 7192, "Ġblossoms": 7193, "Ġdreamland": 7194, "ĠEast": 7195, "Ġscowling": 7196, "ÅĵThose": 7197, "Ho": 7198, "ercise": 7199, "Gwen": 7200, "ĠLaw": 7201, "ĠAlligator": 7202, "Melissa": 7203, "ĠJeffrey": 7204, "Ġconfetti": 7205, "Rainbow": 7206, "ĠBarber": 7207, "ĠVicky": 7208, "ĠGert": 7209, "Ġconvincing": 7210, "Ġchimneys": 7211, "Ġeachother": 7212, "Peggy": 7213, "ĠTheyÃ¢": 7214, "ius": 7215, "Ġditch": 7216, "ĠLunch": 7217, "Ġcabbage": 7218, "ĠRaj": 7219, "Peace": 7220, "Ġchemicals": 7221, "Pay": 7222, "Ġhelplessly": 7223, "ÅĵFollow": 7224, "ĠNavy": 7225, "Fish": 7226, "Ġobservant": 7227, "ĠNight": 7228, "Months": 7229, "Ġcartwheels": 7230, "Ġswarm": 7231, "ĠAmyÃ¢": 7232, "Ġsooo": 7233, "Ġblossom": 7234, "Yield": 7235, "Ġfabulous": 7236, "Ġextinguisher": 7237, "Ġhandyman": 7238, "awr": 7239, "ĠPurr": 7240, "Ġrecycling": 7241, "sized": 7242, "ĠFast": 7243, "ĠBozo": 7244, "ĠTiti": 7245, "Exit": 7246, "Ġconcern": 7247, "ĠMiraculously": 7248, "ĠfarmerÃ¢": 7249, "Ġmirac": 7250, "Ġanniversary": 7251, "ĠGrap": 7252, "Ta": 7253, "Ġinquis": 7254, "ING": 7255, "ĠWorms": 7256, "Throw": 7257, "Ġsmudged": 7258, "Last": 7259, "Ġduty": 7260, "ĠLastly": 7261, "Ġcombination": 7262, "Wheee": 7263, "Ġpeddled": 7264, "ĠDotty": 7265, "Ġdaydream": 7266, "ĠSaid": 7267, "uy": 7268, "Mint": 7269, "Ġsulked": 7270, "Ġfairytale": 7271, "ĠThereÃ¢": 7272, "Ġlightb": 7273, "Pink": 7274, "Ġyeah": 7275, "Ġhandc": 7276, "Ġbenefit": 7277, "Ġjoys": 7278, "Ġtulip": 7279, "ĠArchie": 7280, "ĠLaila": 7281, "Brother": 7282, "ĠWaff": 7283, "ĠBenji": 7284, "Ġtv": 7285, "Ġsnooze": 7286, "Ġproducts": 7287, "Ġramps": 7288, "Åĵlet": 7289, "JackÃ¢": 7290, "Ġswordfish": 7291, "pop": 7292, "ĠLazy": 7293, "Ġrelaxation": 7294, "Ġpoorly": 7295, "OAR": 7296, "zzz": 7297, "ĠPopcorn": 7298, "Ġboatman": 7299, "Ġswatted": 7300, "Ġdragonflies": 7301, "Ġorderly": 7302, "ĠNapping": 7303, "ĠOy": 7304, "ĠPhillip": 7305, "ĠPeeking": 7306, "autiously": 7307, "Win": 7308, "Six": 7309, "Ġeternity": 7310, "Ġslows": 7311, "Ġhuh": 7312, "Ġzap": 7313, "Promise": 7314, "ĠBunbun": 7315, "Ġcools": 7316, "Ġpickle": 7317, "Ġfancier": 7318, "Ġshepherd": 7319, "ĠHunter": 7320, "Ġdonut": 7321, "Ġsunbeam": 7322, "Ġhummingbird": 7323, "Ġgalloping": 7324, "four": 7325, "Woah": 7326, "Rudy": 7327, "Ġhonestly": 7328, "ĠMuffy": 7329, "Ġtipping": 7330, "Ġdaycare": 7331, "Ġinquisitive": 7332, "Ġcomplaints": 7333, "Joan": 7334, "ĠKn": 7335, "Sky": 7336, "Ġsatisfying": 7337, "Ġpayment": 7338, "Maisie": 7339, "Frosty": 7340, "ĠFlip": 7341, "ĠGiraffe": 7342, "ĠLance": 7343, "Mail": 7344, "Ġdisrespect": 7345, "ĠVol": 7346, "Ġneighs": 7347, "Ġsquirm": 7348, "Ġfragrant": 7349, "ĠGas": 7350, "Ġsystem": 7351, "ĠSabrina": 7352, "Ġfizz": 7353, "Greg": 7354, "Ġwheelchair": 7355, "win": 7356, "Ġplaydough": 7357, "ĠCrocodile": 7358, "Åĵwhat": 7359, "ĠZane": 7360, "Rick": 7361, "ĠFrisky": 7362, "Ġporcup": 7363, "Ġunfold": 7364, "Spicy": 7365, "Ġconfronted": 7366, "Ġappreciating": 7367, "ĠSack": 7368, "Ġcowgirl": 7369, "ss": 7370, "Ġtrotting": 7371, "Ġstubbornly": 7372, "Ġuneven": 7373, "ĠBarb": 7374, "Greta": 7375, "zi": 7376, "ĠJimmyÃ¢": 7377, "Patrick": 7378, "Sy": 7379, "Ġdrunk": 7380, "Ġmitt": 7381, "Ġflexibility": 7382, "OU": 7383, "ĠFix": 7384, "Tiger": 7385, "Ġlooping": 7386, "Ġbasics": 7387, "Ruff": 7388, "ĠTrying": 7389, "ĠBud": 7390, "Ġprefer": 7391, "ĠPierre": 7392, "Rita": 7393, "Stret": 7394, "Ġporcupine": 7395, "Ġdownstream": 7396, "Ġsouvenirs": 7397, "six": 7398, "nine": 7399, "Ġvirtue": 7400, "ĠDeaf": 7401, "Ġadventuring": 7402, "Ġlightbulb": 7403, "Ġhospitality": 7404, "Ġfitted": 7405, "Lucas": 7406, "Ġbutcher": 7407, "Stanley": 7408, "ĠMill": 7409, "Ġdisease": 7410, "ĠPrint": 7411, "ĠRina": 7412, "Ġresource": 7413, "ÅĵTime": 7414, "Åĵit": 7415, "ĠneighborÃ¢": 7416, "Ġeyebrow": 7417, "Gary": 7418, "Ġtattered": 7419, "ĠInk": 7420, "ĠMajesty": 7421, "Kathy": 7422, "Ġknitted": 7423, "Ġexist": 7424, "Ġquarrels": 7425, "ĠRhino": 7426, "help": 7427, "Ġgrowth": 7428, "Lost": 7429, "ÅĵYeah": 7430, "ĠBingo": 7431, "ĠDark": 7432, "Ġvirus": 7433, "Ġclubhouse": 7434, "Gas": 7435, "Ġscuttling": 7436, "Ġonboard": 7437, "Ġartifacts": 7438, "ĠMiguel": 7439, "ĠPriscilla": 7440, "yield": 7441, "Ġglinted": 7442, "Ġpools": 7443, "seven": 7444, "ĠAdventure": 7445, "Ġhousework": 7446, "Ġdashboard": 7447, "Ġvolunteer": 7448, "ĠNap": 7449, "Ġunp": 7450, "elderly": 7451, "Ġbarbershop": 7452, "Ġqualities": 7453, "ĠGill": 7454, "ĠJumping": 7455, "Ġbetrayed": 7456, "ĠMic": 7457, "Ġkitties": 7458, "Ze": 7459, "ĠOpal": 7460, "Kelsey": 7461, "ĠCal": 7462, "ĠBarkley": 7463, "ĠNaomi": 7464, "Ġchorus": 7465, "Ġjingling": 7466, "ĠBump": 7467, "Ġdaffod": 7468, "Ġbroad": 7469, "Ġdeliciousness": 7470, "CK": 7471, "Spray": 7472, "March": 7473, "ĠSomehow": 7474, "Åĵbut": 7475, "Ġbriefcase": 7476, "Ġjeeps": 7477, "green": 7478, "ÅĵLucy": 7479, "aaah": 7480, "ĠFierce": 7481, "Ġheadband": 7482, "ĠNala": 7483, "Ġsnoozing": 7484, "Ġ50": 7485, "New": 7486, "eight": 7487, "ĠMarvin": 7488, "ĠSteak": 7489, "ĠTrudy": 7490, "asc": 7491, "Ġnudge": 7492, "ES": 7493, "Anything": 7494, "Ġelves": 7495, "Ġdivide": 7496, "ĠSing": 7497, "lip": 7498, "ĠDerek": 7499, "ĠFer": 7500, "ĠJemima": 7501, "repeat": 7502, "Ġcontrols": 7503, "Ġassistance": 7504, "Matthew": 7505, "Ġoveralls": 7506, "Ġswallows": 7507, "folk": 7508, "urp": 7509, "ĠUpon": 7510, "Ġringmaster": 7511, "min": 7512, "ĠWords": 7513, "ĠElmo": 7514, "ĠElliot": 7515, "ĠKari": 7516, "Ġoccurred": 7517, "Much": 7518, "ĠPaint": 7519, "Pippin": 7520, "Ġtadpoles": 7521, "Spidey": 7522, "Brad": 7523, "Light": 7524, "Rawr": 7525, "Ġclassmate": 7526, "Excellent": 7527, "Man": 7528, "Ġpunch": 7529, "ĠMiaÃ¢": 7530, "Ġnoodle": 7531, "ĠGlow": 7532, "wi": 7533, "Neigh": 7534, "ĠEmmaÃ¢": 7535, "Ġadvised": 7536, "Ġ`": 7537, "ĠAlyssa": 7538, "10": 7539, "ĠSkipping": 7540, "Ġelsewhere": 7541, "urn": 7542, "ĠGh": 7543, "Ġtus": 7544, "Ġofficial": 7545, "Ġshrugging": 7546, "Ġtownsfolk": 7547, "Ġinstructed": 7548, "ER": 7549, "Ġfairness": 7550, "ĠGraham": 7551, "grandma": 7552, "Ġfifth": 7553, "Ġquench": 7554, "Ġmodestly": 7555, "ĠArnold": 7556, "Ġreceipt": 7557, "Ġdisobeying": 7558, "Surprisingly": 7559, "Ugh": 7560, "Ġoval": 7561, "Puppy": 7562, "ĠLewis": 7563, "ĠPigeon": 7564, "Ġvivid": 7565, "Ġunattended": 7566, "Duck": 7567, "ĠDisappointed": 7568, "PL": 7569, "Ġgracefulness": 7570, "Ġhydrant": 7571, "Ġstoreowner": 7572, "ĠLamb": 7573, "Ġunpleasant": 7574, "Ġaltogether": 7575, "ĠBEEP": 7576, "blue": 7577, "Ġmmm": 7578, "Ġpassword": 7579, "Ġclumsily": 7580, "ĠGently": 7581, "Jennifer": 7582, "Ġinvolve": 7583, "ĠSylvester": 7584, "Ġdrenched": 7585, "bag": 7586, "Ġafterward": 7587, "ĠPuzz": 7588, "!!\"": 7589, "ĠOil": 7590, "Ġglint": 7591, "guin": 7592, "snap": 7593, "Ġcradled": 7594, "Ġ\"'": 7595, "Yup": 7596, "ĠtreeÃ¢": 7597, "ĠHarvey": 7598, "Ġbasking": 7599, "Miles": 7600, "Benj": 7601, "ĠLottie": 7602, "ĠVal": 7603, "ĠAngus": 7604, "Ġfulfill": 7605, "cross": 7606, "Ġdisrespectful": 7607, "!?\"": 7608, "bug": 7609, "Ġfragrance": 7610, "Ġreplying": 7611, "Ġshutting": 7612, "ĠBoat": 7613, "Clare": 7614, "Ġhandcuffs": 7615, "ĠSquare": 7616, "ĠparentsÃ¢": 7617, "Ball": 7618, "Ġearthworm": 7619, "ĠKeith": 7620, "ĠGeorgia": 7621, "Alfie": 7622, "Glad": 7623, "Ġresearch": 7624, "Making": 7625, "Ġshrieked": 7626, "Ġcamels": 7627, "Ġnuzzle": 7628, "ĠGuard": 7629, "leaf": 7630, "ĠLa": 7631, "Ġsummit": 7632, "Yoga": 7633, "ĠMaryÃ¢": 7634, "Crabby": 7635, "ĠRocco": 7636, "Dino": 7637, "Ġcru": 7638, "Ġbackup": 7639, "ÅĵLittle": 7640, "icier": 7641, "Ġcargo": 7642, "ĠAnchor": 7643, "Ġculture": 7644, "ĠJoyce": 7645, "ĠAiden": 7646, "Ġtrek": 7647, "Ġshortly": 7648, "through": 7649, "Ġdisgu": 7650, "Ġripping": 7651, "Ġtruthful": 7652, "ÅĵletÃ¢": 7653, "ÅĵExcuse": 7654, "Sal": 7655, "Ġchomped": 7656, "Ġmarrying": 7657, "Gray": 7658, "Bea": 7659, "Ġapologise": 7660, "Carrie": 7661, "Ġsquiggly": 7662, "ĠBat": 7663, "Ġscowl": 7664, "Ġdribbling": 7665, "Ġoblige": 7666, "ĠTigger": 7667, "Ġmarketplace": 7668, "Skip": 7669, "Ġwidth": 7670, "ĠOctop": 7671, "MollyÃ¢": 7672, "Green": 7673, "Ġrainwater": 7674, "Pin": 7675, "Ġconstr": 7676, "Victory": 7677, "rawberry": 7678, "Ġstamping": 7679, "Ġnervousness": 7680, "ĠShop": 7681, "Cir": 7682, "mp": 7683, "Ġsplinter": 7684, "Ġcoldness": 7685, "ĠCell": 7686, "Ġhydrated": 7687, "Ġcirc": 7688, "Ġpasserby": 7689, "uckle": 7690, "ĠWitch": 7691, "Ġhaunted": 7692, "Ant": 7693, "Ġjumpy": 7694, "Ġsizzling": 7695, "ĠBald": 7696, "ĠLeila": 7697, "Ġspiciest": 7698, "rd": 7699, "Ġresourceful": 7700, "ĠeveryoneÃ¢": 7701, "Ġparadise": 7702, "ĠdaughterÃ¢": 7703, "Ġgerm": 7704, "Ġslope": 7705, "Ġkindergarten": 7706, "oice": 7707, "click": 7708, "Ġferocious": 7709, "Ġclumsiness": 7710, "Ġdrawbridge": 7711, "keeping": 7712, "Ġsuperpowers": 7713, "Ġpiling": 7714, "Ami": 7715, "''": 7716, "STOP": 7717, "Ġflit": 7718, "rus": 7719, "Ġslurping": 7720, "YouÃ¢": 7721, "Lydia": 7722, "Thunder": 7723, "Sl": 7724, "Ladies": 7725, "Ġsmudge": 7726, "Spin": 7727, "ĠNovels": 7728, "Ġheap": 7729, "Åĵwe": 7730, "Zap": 7731, "ĠStuart": 7732, "Ġswore": 7733, "Ġdu": 7734, "ĠSteam": 7735, "Ġphotograph": 7736, "ĠFritz": 7737, "Angel": 7738, "Ġpoodle": 7739, "Ġinspiring": 7740, "Ġpreferences": 7741, "Fighting": 7742, "Speedy": 7743, "ĠRhy": 7744, "Ġrealising": 7745, "Ġprevious": 7746, "Ġvigorously": 7747, "Ġdipping": 7748, "Ġsupervision": 7749, "Ġintricate": 7750, "Doctor": 7751, "AY": 7752, "ĠRat": 7753, "Ġclogged": 7754, "Ġsquint": 7755, "ho": 7756, "ĠOat": 7757, "Ġhairbrush": 7758, "ĠAndrea": 7759, "ĠBrett": 7760, "Ġawkward": 7761, "Ġrestful": 7762, "Rock": 7763, "Ġmateys": 7764, "Ġdozing": 7765, "Ġeyebrows": 7766, "Ġobeying": 7767, "Ġspoonfuls": 7768, "Ġthumping": 7769, "Ġunknowingly": 7770, "ĠToast": 7771, "Ġcycle": 7772, "iwork": 7773, "Ġhandiwork": 7774, "Ġcheapest": 7775, "Ġensure": 7776, "Ġsubtract": 7777, "Ġmurm": 7778, "Ġhotdogs": 7779, "Aaaah": 7780, "Ġalleyway": 7781, "ĠUgly": 7782, "ĠSafety": 7783, "ĠNicole": 7784, "ĠSonia": 7785, "ĠClyde": 7786, "ĠStevie": 7787, "ĠIan": 7788, "ÅĵhelloÃ¢": 7789, "Ġparachute": 7790, "ĠPixie": 7791, "ĠHugs": 7792, "Ġicicle": 7793, "Cake": 7794, "Perfect": 7795, "Ġswerved": 7796, "Ġconcentration": 7797, "ressive": 7798, "?'\"": 7799, "Ġtusks": 7800, "ĠSand": 7801, "ÅĵBob": 7802, "Ġmessenger": 7803, "lantern": 7804, "ĠCurly": 7805, "Freya": 7806, "ĠGabe": 7807, "ĠKip": 7808, "Cluck": 7809, "Girls": 7810, "ĠBaking": 7811, "nock": 7812, "Car": 7813, "ĠGl": 7814, "Ġcurb": 7815, "ĠTeach": 7816, "ĠSlimy": 7817, "ĠCastle": 7818, "Ġtranqu": 7819, "ĠWorm": 7820, "ĠStreet": 7821, "Ġcavity": 7822, "Ġfossils": 7823, "Ġpegs": 7824, "ĠFlexible": 7825, "Buster": 7826, "ĠSheÃ¢": 7827, "ĠSydney": 7828, "Ria": 7829, "ja": 7830, "ĠLuca": 7831, "ĠVivi": 7832, "ÅĵListen": 7833, "ĠJewel": 7834, "shrink": 7835, "JoJo": 7836, "Ġunfro": 7837, "would": 7838, "ao": 7839, "ĠBananas": 7840, "Kai": 7841, "Erin": 7842, "!?": 7843, "ĠGrey": 7844, "ĠLuisa": 7845, "Bring": 7846, "ĠMissile": 7847, "Ġ,": 7848, "ĠLuis": 7849, "ĠUni": 7850, "ĠGil": 7851, "ĠEmi": 7852, "ĠRice": 7853, "cred": 7854, "ÅĵMolly": 7855, "ĠCDs": 7856, "ĠGrant": 7857, "Gently": 7858, "Squeak": 7859, "ĠCorn": 7860, "Ġpurs": 7861, "Maxine": 7862, "Oxygen": 7863, "ĠChubby": 7864, "ĠDilly": 7865, "Ġunravel": 7866, "ĠMit": 7867, "ĠHorsy": 7868, "Åĵno": 7869, "ĠMoira": 7870, "Butterflies": 7871, "ĠGerald": 7872, "ĠEvie": 7873, "ĠGertrude": 7874, "ĠJada": 7875, "Ġcoyote": 7876, "ĠRico": 7877, "Ġ3rd": 7878, "Ġnerves": 7879, "ĠFuel": 7880, "Knock": 7881, "Ġreefs": 7882, "town": 7883, "ĠAcross": 7884, "Ġblackbird": 7885, "Ġmotionless": 7886, "ĠTommyÃ¢": 7887, "ĠExercise": 7888, "ĠBas": 7889, "Prince": 7890, "yuck": 7891, "Ġrecycle": 7892, "Other": 7893, "ĠKylie": 7894, "Ġyow": 7895, "Ġduo": 7896, "Ġschoolwork": 7897, "Ġproduct": 7898, "ĠFay": 7899, "ĠAcorn": 7900, "Ġbiking": 7901, "ĠSis": 7902, "ĠWouldn": 7903, "ĠMargo": 7904, "ĠBumpy": 7905, "ĠchildÃ¢": 7906, "Ġelegant": 7907, "Â©.": 7908, "Ġgenius": 7909, "Captain": 7910, "Ġhalls": 7911, "Ġcrumbly": 7912, "ĠWiggle": 7913, "Ġsafekeeping": 7914, "Ġgrumpily": 7915, "Fifi": 7916, "Ġwriggly": 7917, "ĠJogging": 7918, "Ġhermit": 7919, "Audrey": 7920, "ĠTick": 7921, "Gail": 7922, "xury": 7923, "ÅĵSam": 7924, "Lots": 7925, "Stretch": 7926, "Ġsquiggles": 7927, "Ġspotting": 7928, "yla": 7929, "Immediately": 7930, "Ġchilli": 7931, "Ġhull": 7932, "La": 7933, "Lightning": 7934, "fing": 7935, "Ġproc": 7936, "Ġengulfed": 7937, "Ġmuffled": 7938, "ÅĵLily": 7939, "Ġfoolishly": 7940, "Ġfriendlier": 7941, "Chew": 7942, "Sing": 7943, "Ġcowgirls": 7944, "ĠTin": 7945, "Ġzagged": 7946, "ĠPieces": 7947, "Ġladle": 7948, "ĠSPL": 7949, "Ġsunhat": 7950, "Disappointed": 7951, "Ġpretzel": 7952, "Albert": 7953, "Zack": 7954, "ĠBab": 7955, "ĠTubby": 7956, "ĠNatalie": 7957, "ĠCottontail": 7958, "ĠKatrina": 7959, "ĠSmudge": 7960, "ÅĵF": 7961, "actly": 7962, "Ġquartz": 7963, "quack": 7964, "Oscar": 7965, "ĠSave": 7966, "Ġcongratulate": 7967, "Accidents": 7968, "ĠZeke": 7969, "Ġfossil": 7970, "Aye": 7971, "Ġcavities": 7972, "Number": 7973, "ĠJillÃ¢": 7974, "ĠVera": 7975, "Ġyolk": 7976, "ĠSqueeze": 7977, "ĠPuss": 7978, "Spider": 7979, "Ġsubmarine": 7980, "Ġelevators": 7981, "ĠRadish": 7982, "Ġcheckup": 7983, "Ġcourageously": 7984, "Ġinstructor": 7985, "Daughter": 7986, "TomÃ¢": 7987, "ĠFrightened": 7988, "ÅĵSarah": 7989, "Race": 7990, "Geor": 7991, "Ġyeast": 7992, "pot": 7993, "Âł": 7994, "Ġquiver": 7995, "ĠPinching": 7996, "Ġbasked": 7997, "Ġwalrus": 7998, "Ġgenerously": 7999, "Ġschedule": 8000, "ĠelseÃ¢": 8001, "ĠFrisbee": 8002, "Ġadvisor": 8003, "ĠAllison": 8004, "Ġcreeping": 8005, "Ġeducational": 8006, "!.": 8007, "ĠladyÃ¢": 8008, "ĠTurkey": 8009, "Ġdrooping": 8010, "Ġreassure": 8011, "ĠTidy": 8012, "Ġunpred": 8013, "Ġunpredictable": 8014, "agging": 8015, "ĠRub": 8016, "Ġpulse": 8017, "ĠTimÃ¢": 8018, "ĠPie": 8019, "Ġcarelessness": 8020, "ĠMailman": 8021, "Ġcliffs": 8022, "Ġpredators": 8023, "Bruno": 8024, "ĠAnnaÃ¢": 8025, "Value": 8026, "ĠPitch": 8027, "Ġswiftly": 8028, "Ġnutritious": 8029, "Ġdeliveryman": 8030, "Banana": 8031, "Jade": 8032, "Saf": 8033, "Dylan": 8034, "Ġtopping": 8035, "Ġlumps": 8036, "Ġsmirk": 8037, "ĠMommyÃ¢": 8038, "Arthur": 8039, "Ġversion": 8040, "ĠPeek": 8041, "Ġexperiencing": 8042, "ĠCy": 8043, "Ernie": 8044, "Ġflowerbed": 8045, "Left": 8046, "credible": 8047, "ĠFear": 8048, "Ġhumbly": 8049, "ĠFancy": 8050, "Ġdisguise": 8051, "ĠGreed": 8052, "Muffin": 8053, "ĠSlide": 8054, "ĠOysters": 8055, "ĠMud": 8056, "ĠCauliflower": 8057, "ĠReg": 8058, "Ġsews": 8059, "elix": 8060, "Theo": 8061, "ĠsunÃ¢": 8062, "ĠStrong": 8063, "Ig": 8064, "Ġassemble": 8065, "Exactly": 8066, "foot": 8067, "Ġenergised": 8068, "poison": 8069, "ĠKnives": 8070, "AT": 8071, "Ġgrunts": 8072, "Ġsensitive": 8073, "ĠTown": 8074, "ĠBouncing": 8075, "Ġoverwhelming": 8076, "Ġsput": 8077, "Ġconfront": 8078, "Ġupright": 8079, "Ġturb": 8080, "ĠZebra": 8081, "ĠTuffy": 8082, "unia": 8083, "Kyle": 8084, "Ġsubject": 8085, "Felix": 8086, "ĠMargie": 8087, "ĠWaffle": 8088, "sea": 8089, "ĠPerhaps": 8090, "OW": 8091, "Syl": 8092, "Ġworriedly": 8093, "Ġexotic": 8094, "Bro": 8095, "Ravi": 8096, "uccessful": 8097, "ĠbabyÃ¢": 8098, "ĠSleeping": 8099, "Ġregardless": 8100, "CH": 8101, "ĠJacklyn": 8102, "ĠContest": 8103, "Ġintriguing": 8104, "Ġyipped": 8105, "Ġpixie": 8106, "Ġlevels": 8107, "ĠKingdom": 8108, "ĠKira": 8109, "ĠIron": 8110, "Ġcookbook": 8111, "ĠWren": 8112, "ĠScratch": 8113, "ĠEg": 8114, "ca": 8115, "ĠMadison": 8116, "Ġknowledgeable": 8117, "ĠKeeping": 8118, "ĠBOOM": 8119, "Ġyelping": 8120, "Pain": 8121, "Ġunrolled": 8122, "Ġanxiety": 8123, "ustral": 8124, "Poison": 8125, "Afterward": 8126, "Ġdread": 8127, "ĠWorry": 8128, "Ġreunite": 8129, "gged": 8130, "Work": 8131, "Ġraspberries": 8132, "Day": 8133, "Ġheroic": 8134, "Ġbatted": 8135, "Ġunc": 8136, "try": 8137, "Ġgatekeeper": 8138, "ua": 8139, "ĠBart": 8140, "Ġstuttered": 8141, "Ġgreatness": 8142, "Ġsplint": 8143, "Ġpostbox": 8144, "ĠAustral": 8145, "ĠNat": 8146, "LL": 8147, "ĠBuffy": 8148, "Ġkiwi": 8149, "ĠSpud": 8150, "ĠAlso": 8151, "ĠAce": 8152, "Ġawaiting": 8153, "ĠSailor": 8154, "ĠLucia": 8155, "grown": 8156, "ĠJared": 8157, "ĠOnion": 8158, "grandpa": 8159, "ĠNico": 8160, "ĠPepe": 8161, "Ġrapid": 8162, "ĠTape": 8163, "ĠUnknown": 8164, "Ġcackled": 8165, "ĠGavin": 8166, "Ġiceber": 8167, "Ġmoaned": 8168, "Grandmother": 8169, "Toni": 8170, "LilyÃ¢": 8171, "Ġgreatly": 8172, "Ġcroc": 8173, "ĠFashion": 8174, "ĠBox": 8175, "ĠHalfway": 8176, "Halfway": 8177, "Dolls": 8178, "Ġfatter": 8179, "Print": 8180, "ĠFake": 8181, "Circus": 8182, "Ġwomen": 8183, "Ġmouthful": 8184, "ĠRhinoceros": 8185, "Ġstylist": 8186, "stupid": 8187, "ĠCamp": 8188, "Ġunexpectedly": 8189, "Cautiously": 8190, "IT": 8191, "Kat": 8192, "!!": 8193, "Ġnozz": 8194, "Ġmansion": 8195, "lessly": 8196, "Ada": 8197, "colm": 8198, "Ġboastful": 8199, "nthia": 8200, "Ġbookshelves": 8201, "Ġproposed": 8202, "ruce": 8203, "ew": 8204, "Ġwillingness": 8205, "ÅĵTo": 8206, "ĠarenÃ¢": 8207, "Pull": 8208, "sc": 8209, "ĠnightÃ¢": 8210, "ĠStatue": 8211, "MiaÃ¢": 8212, "IG": 8213, "nut": 8214, "pom": 8215, "ĠEmilyÃ¢": 8216, "ĠGret": 8217, "ĠHug": 8218, "Gerry": 8219, "ÅĵJoe": 8220, "Ġhighway": 8221, "Sparkles": 8222, "oiled": 8223, "ĠWay": 8224, "Ġappropriate": 8225, "special": 8226, "Ġhighly": 8227, "organize": 8228, "Ġjellybeans": 8229, "ĠMushroom": 8230, "ĠHundreds": 8231, "Ġsleek": 8232, "Ġorchestra": 8233, "Ġdusk": 8234, "Ġprotein": 8235, "Ġmysteriously": 8236, "Ġjolt": 8237, "ĠAncient": 8238, "ĠDO": 8239, "Ġprogram": 8240, "Ġissue": 8241, "ĠLin": 8242, "ROAR": 8243, "post": 8244, "Ġdiscount": 8245, "Ġcompetitors": 8246, "Ġawaits": 8247, "ĠEagle": 8248, "Debbie": 8249, "ĠOctopus": 8250, "Oooh": 8251, "ĠsomeoneÃ¢": 8252, "ĠTucker": 8253, "Jasper": 8254, "ĠSock": 8255, "pool": 8256, "ĠmeÃ¢": 8257, "ĠArctic": 8258, "Ġboar": 8259, "Perhaps": 8260, "Ġlawnmower": 8261, "ĠSunflower": 8262, "Winter": 8263, "ĠWizard": 8264, "Macy": 8265, "ĠMc": 8266, "Ġshoving": 8267, "BunBun": 8268, "ĠFruit": 8269, "Crash": 8270, "Ġgleamed": 8271, "sure": 8272, "ĠFranc": 8273, "legged": 8274, "Panda": 8275, "ĠCricket": 8276, "Ġseedling": 8277, "ĠBaker": 8278, "Ġpulp": 8279, "ĠPetunia": 8280, "urs": 8281, "Ġreflect": 8282, "ĠBradley": 8283, "Blast": 8284, "yo": 8285, "ĠWolfie": 8286, "ĠRara": 8287, "Ġcozier": 8288, "Faster": 8289, "Nope": 8290, "ĠRhythm": 8291, "Ġpowerless": 8292, "ĠagainÃ¢": 8293, "ĠJennyÃ¢": 8294, "ĠLadybug": 8295, "Ġenthralled": 8296, "Ġunscrew": 8297, "Ġcrossbones": 8298, "Ġshrubs": 8299, "ĠfoxÃ¢": 8300, "Ġcardinal": 8301, "fragile": 8302, "ĠNadia": 8303, "ĠOpera": 8304, "Ġfrustrating": 8305, "Ġtoybox": 8306, "Faith": 8307, "Ġdaytime": 8308, "Ġnozzle": 8309, "Ġimpression": 8310, "ĠInch": 8311, "ĠFeather": 8312, "Ġcrossro": 8313, "ÅĵMia": 8314, "Roxy": 8315, "ĠIris": 8316, "ĠClive": 8317, "ĠTobi": 8318, "Ġtrekked": 8319, "Ġroughly": 8320, "Ġconsequence": 8321, "Ġpitchfork": 8322, "Angie": 8323, "Ġcontagious": 8324, "ĠRanger": 8325, "ĠDusty": 8326, "Ġtopic": 8327, "Scott": 8328, "Ġ123": 8329, "Ġtechniques": 8330, "Rudolph": 8331, "Ġsandpaper": 8332, "etch": 8333, "uilt": 8334, "Cheap": 8335, "Chuck": 8336, "ĠReindeer": 8337, "ĠhereÃ¢": 8338, "ĠDiamond": 8339, "Ġhardware": 8340, "Ġparamedic": 8341, "loving": 8342, "Ġstrategy": 8343, "Ġunfortunate": 8344, "Gia": 8345, "Ġgrunt": 8346, "ĠbrotherÃ¢": 8347, "Ġbowtie": 8348, "Ġtoothp": 8349, "ĠHumble": 8350, "Ġchomping": 8351, "Ġbusily": 8352, "ĠdoctorÃ¢": 8353, "ĠDebby": 8354, "Ġbridle": 8355, "Fairy": 8356, "Ġsplendid": 8357, "Robin": 8358, "ĠCact": 8359, "Ġdedicated": 8360, "Ġmoan": 8361, "ĠColors": 8362, "Ġbarefoot": 8363, "jump": 8364, "Ġproclaimed": 8365, "Ġhotdog": 8366, "ĠmouseÃ¢": 8367, "Kaylee": 8368, "Ot": 8369, "ĠGraceful": 8370, "surrender": 8371, "Ġprickles": 8372, "fashioned": 8373, "Ġgingerly": 8374, "Ġforb": 8375, "Ġwasps": 8376, "Snake": 8377, "Ġruffles": 8378, "Simba": 8379, "Ginny": 8380, "face": 8381, "loÃĥ": 8382, "Dawn": 8383, "ĠPia": 8384, "ĠBao": 8385, "Ġcalc": 8386, "ĠLili": 8387, "\\\"": 8388, "gency": 8389, "Ġassign": 8390, "Ġturnip": 8391, "spicy": 8392, "Ġmiraculous": 8393, "Ġobviously": 8394, "Gradually": 8395, "Ġflattened": 8396, "Broccoli": 8397, "Celery": 8398, "Ġautograph": 8399, "Pig": 8400, "lexible": 8401, "Ġnutrients": 8402, "ĠgrandmaÃ¢": 8403, "ĠMY": 8404, "ĠDust": 8405, "Fran": 8406, "Ġindigo": 8407, "ĠfrogÃ¢": 8408, "00": 8409, "ĠWalking": 8410, "Ġcurvy": 8411, "Clean": 8412, "Ġutensils": 8413, "Â´": 8414, "Ġivy": 8415, "Strike": 8416, "ĠfairyÃ¢": 8417, "ĠGoat": 8418, "Wilbur": 8419, "ĠMist": 8420, "ba": 8421, "ĠWilf": 8422, "ĠPraying": 8423, "vocado": 8424, "Ġcheetahs": 8425, "Ġdislikes": 8426, "Diana": 8427, "Beef": 8428, "Ġdelightedly": 8429, "Ġdownhill": 8430, "ĠJayden": 8431, "Ġsuperpower": 8432, "ĠPablo": 8433, "ĠFia": 8434, "ĠLilli": 8435, "Ġwreath": 8436, "Ġinterrupt": 8437, "ÅĵB": 8438, "Ġhilltop": 8439, "Ġdowntown": 8440, "Juice": 8441, "Ġupwards": 8442, "Ġsolemn": 8443, "ĠGear": 8444, "fruit": 8445, "ĠAustralia": 8446, "ĠFeel": 8447, "Further": 8448, "Marc": 8449, "ĠCereal": 8450, "Ġxylophone": 8451, "Ġveins": 8452, "ÅĵTimmy": 8453, "ĠDash": 8454, "Ġcleanliness": 8455, "Ġwove": 8456, "Popcorn": 8457, "Ġclenched": 8458, "Sister": 8459, "Mighty": 8460, "ĠEmmi": 8461, "Ġhexagon": 8462, "Ziggy": 8463, "ĠCroco": 8464, "Cro": 8465, "EA": 8466, "Ġbeckoned": 8467, "ĠElmer": 8468, "Ġchoir": 8469, "Joyce": 8470, "ĠGlitter": 8471, "Jellyfish": 8472, "ĠVictor": 8473, "Ġknotted": 8474, "ĠSea": 8475, "utumn": 8476, "ĠLuka": 8477, "Ġdejected": 8478, "ĠReef": 8479, "ĠKirsty": 8480, "Ġrapidly": 8481, "Ġdrier": 8482, "Ġadvertisement": 8483, "Ġluxuries": 8484, "Ġupstream": 8485, "ĠVe": 8486, "Ġengrossed": 8487, "Ġpumping": 8488, "Behave": 8489, "Press": 8490, "Easy": 8491, "Ġallows": 8492, "moving": 8493, "wreck": 8494, "ĠPenguin": 8495, "ĠDoodle": 8496, "Ġbrilliance": 8497, "âĤ¬âĦ¢,": 8498, "Ġroyalty": 8499, "ĠButton": 8500, "exit": 8501, "Bouncy": 8502, "Ġwhipping": 8503, "Mal": 8504, "ĠSquirrels": 8505, "Sn": 8506, "Ġcroissant": 8507, "ĠImp": 8508, "ĠSPLA": 8509, "uddle": 8510, "Ġsnipping": 8511, "ÅĵitÃ¢": 8512, "Ġabsorbed": 8513, "ĠSammyÃ¢": 8514, "Ġsnooping": 8515, "Sparkle": 8516, "Crazy": 8517, "ÅĵReally": 8518, "ĠFisherman": 8519, "Gilly": 8520, "Study": 8521, "ĠChef": 8522, "Ġhairdryer": 8523, "Ġpinwheel": 8524, "Ġwaistband": 8525, "ĠDaphne": 8526, "bie": 8527, "ÅĵHoney": 8528, "ĠSeek": 8529, "Nature": 8530, "Ġiceberg": 8531, "Ġdisr": 8532, "ĠHawai": 8533, "ĠGarden": 8534, "Ġeyelids": 8535, "onderful": 8536, "ĠPebbles": 8537, "Ġchildish": 8538, "Ġparticipate": 8539, "Ġbabyish": 8540, "fied": 8541, "Ġunfroze": 8542, "being": 8543, "Salt": 8544, "Lunch": 8545, "Ġ25": 8546, "Ġrebuilt": 8547, "ĠpuppyÃ¢": 8548, "ĠHayley": 8549, "BANG": 8550, "Ġmobile": 8551, "Mei": 8552, "ĠGrandfather": 8553, "ĠFleas": 8554, "Ġsummoned": 8555, "ĠneighbourÃ¢": 8556, "Ġrestlessness": 8557, "Edward": 8558, "Ġtechnique": 8559, "ÅĵMmm": 8560, "neigh": 8561, "Ġstunts": 8562, "ĠBowser": 8563, "ĠTiggy": 8564, "ramps": 8565, "ĠUs": 8566, "ĠTiff": 8567, "ĠElderly": 8568, "ĠDavy": 8569, "ĠChelsea": 8570, "Ġsup": 8571, "ĠAlvin": 8572, "Bruce": 8573, "ĠMoving": 8574, "Ġconclus": 8575, "Ġdaffodil": 8576, "Clap": 8577, "Ewww": 8578, "Pow": 8579, "Ġcontract": 8580, "ketball": 8581, "Rani": 8582, "Ġburrows": 8583, "Ġstillness": 8584, "Ġtechnician": 8585, "ĠYOU": 8586, "Ġviolence": 8587, "Ġdaylight": 8588, "Ġpatchwork": 8589, "Ġpaddock": 8590, "Ġagile": 8591, "Ġdeg": 8592, "Ġattachment": 8593, "Mason": 8594, "Ġfiddled": 8595, "Ġyowled": 8596, "Vanish": 8597, "Ġmailmen": 8598, "Earth": 8599, "Ġtrolls": 8600, ".)": 8601, "ÅĵyouÃ¢": 8602, "Bubble": 8603, "Ġbrooch": 8604, "ĠFizzy": 8605, "ĠGilbert": 8606, "ÅĵSo": 8607, "ÅĵHave": 8608, "Slide": 8609, "Ġintruders": 8610, "ĠwomanÃ¢": 8611, "ĠCave": 8612, "Velvet": 8613, "Ġrelying": 8614, "Ġ&": 8615, "Ġswerve": 8616, "ĠHawaii": 8617, "Nia": 8618, "Paw": 8619, "ĠoneÃ¢": 8620, "Mac": 8621, "Ġpatrol": 8622, "Frightened": 8623, "Ġundressed": 8624, "ĠspecialÃ¢": 8625, "Ġcrybaby": 8626, "ĠSuki": 8627, "ÅĵVery": 8628, "ĠReach": 8629, "ĠCasper": 8630, "glass": 8631, "ĠBIG": 8632, "Ġannounce": 8633, "ÅĵHappy": 8634, "ĠYawn": 8635, "Zebra": 8636, "ĠYogurt": 8637, "Ġcrevices": 8638, "ĠFern": 8639, "ĠlionÃ¢": 8640, "Ġbask": 8641, "Jam": 8642, "Ġpeeping": 8643, "rietta": 8644, "ĠSienna": 8645, "Ġarf": 8646, "inja": 8647, "ĠPlant": 8648, "ĠFair": 8649, "Ġconcentrating": 8650, "Ġancestors": 8651, "Michelle": 8652, "Ġunimportant": 8653, "Ġappreciative": 8654, "Ġjig": 8655, "Margaret": 8656, "ĠEager": 8657, "Ġventuring": 8658, "ÅĵJimmy": 8659, "Ġbulldozer": 8660, "ĠGrape": 8661, "ĠfatherÃ¢": 8662, "Ġphys": 8663, "thump": 8664, "Ġunsuccessful": 8665, "Åĵthis": 8666, "ĠthreeÃ¢": 8667, "Ġcostly": 8668, "big": 8669, "Wasn": 8670, "Ġkickball": 8671, "Smile": 8672, "ÅĵyesÃ¢": 8673, "Ġmakeover": 8674, "Ġdocument": 8675, "ĠSpread": 8676, "Ethan": 8677, "ville": 8678, "ĠSoar": 8679, "Ġaltar": 8680, "Ġbitterness": 8681, "Fear": 8682, "Ġthunderclap": 8683, "ĠSPLASH": 8684, "Nap": 8685, "ĠdragonÃ¢": 8686, "Ġreun": 8687, "Ġcombine": 8688, "ÅĵG": 8689, "ĠWorried": 8690, "ĠbunnyÃ¢": 8691, "group": 8692, "Ġparsley": 8693, "Wolf": 8694, "Ġcrossroads": 8695, "ÅĵDaisy": 8696, "Rub": 8697, "Ġugliest": 8698, "Faye": 8699, "ĠCeleste": 8700, "Bobbi": 8701, "Ġleprechaun": 8702, "Ġrealization": 8703, "Paige": 8704, "olite": 8705, "uffle": 8706, "Ġcharging": 8707, "Ġbookmark": 8708, "Bark": 8709, "Ad": 8710, "ĠAndi": 8711, "Ġselfishly": 8712, "ĠFur": 8713, "ĠPractice": 8714, "ĠCrayons": 8715, "Ġsneezy": 8716, "ĠTeam": 8717, "ÅĵJump": 8718, "writing": 8719, "Fragile": 8720, "Tia": 8721, "ĠPlace": 8722, "ĠDaddyÃ¢": 8723, "ĠJimÃ¢": 8724, "Crystal": 8725, "Vera": 8726, "lit": 8727, "Ġhoneymoon": 8728, "Ġfiddle": 8729, "Ġrailway": 8730, "ĠGran": 8731, "ĠSisi": 8732, "Ġdownwards": 8733, "ĠLuxury": 8734, "Ġsprite": 8735, "Ġplaygroup": 8736, "Ġhumility": 8737, "ĠBub": 8738, "Samuel": 8739, "Ġshadowy": 8740, "Ġpi": 8741, "uk": 8742, "ĠKid": 8743, "ĠMun": 8744, "Ooo": 8745, "ĠRiya": 8746, "ĠExcept": 8747, "Mild": 8748, "usic": 8749, "Puddles": 8750, "ĠRaymond": 8751, "ÅĵNext": 8752, "Ġruffling": 8753, "ĠDadÃ¢": 8754, "ĠdogÃ¢": 8755, "Ġnegative": 8756, "Filled": 8757, "SarahÃ¢": 8758, "ĠPastels": 8759, "Ġcrevice": 8760, "Ma": 8761, "Gertie": 8762, "YES": 8763, "Ġsnarls": 8764, "Ġpyramids": 8765, "Ġomelette": 8766, "Ġmystical": 8767, "Ġactress": 8768, "ĠStudying": 8769, "Ġhoofs": 8770, "Ġforbidden": 8771, "Hugo": 8772, "ÅĵHold": 8773, "Ġrequires": 8774, "ĠApp": 8775, "Ġconfessed": 8776, "MaxÃ¢": 8777, "ĠCubey": 8778, "Ġtadpole": 8779, "Ġbroadly": 8780, "Nan": 8781, "Ġquietness": 8782, "Write": 8783, "ĠLi": 8784, "Ġdeliciously": 8785, "Rainbows": 8786, "Pinchy": 8787, "ĠGracy": 8788, "Ġselfless": 8789, "oise": 8790, "ĠKangaroo": 8791, "Snowball": 8792, "Ġdetergent": 8793, "ĠAutumn": 8794, "Deaf": 8795, "ĠMalcolm": 8796, "Rusty": 8797, "ĠJac": 8798, "ĠBreezy": 8799, "ĠEdwin": 8800, "ricia": 8801, "ĠGator": 8802, "Ġsuspiciously": 8803, "Ġbedspread": 8804, "ĠAyla": 8805, "Hurray": 8806, "Ġloudspe": 8807, "ĠAnimal": 8808, "Ġthoroughly": 8809, "ĠlateÃ¢": 8810, "ĠJin": 8811, "ĠSauce": 8812, "Ġswum": 8813, "grow": 8814, "ĠRascal": 8815, "ĠhappyÃ¢": 8816, "Ġgasping": 8817, "Ġvalve": 8818, "lutter": 8819, "ĠMackenzie": 8820, "Ġguinea": 8821, "Ġwoodsman": 8822, "Ġextinguished": 8823, "Ġbliss": 8824, "Ġrelaxes": 8825, "Ġinspire": 8826, "Ġsuds": 8827, "plexed": 8828, "Abbi": 8829, "ĠGrateful": 8830, "Ġwetsuit": 8831, "sister": 8832, "Ġhomesick": 8833, "ĠAir": 8834, "Ġhues": 8835, "Sissy": 8836, "Ġcampground": 8837, "Ġbargain": 8838, "ĠTaxi": 8839, "Ġreunion": 8840, "ĠChloÃĥ": 8841, "polish": 8842, "Ġcomf": 8843, "ĠBaxter": 8844, "Ġnoisier": 8845, "Ġcourtroom": 8846, "ĠGramps": 8847, "Ke": 8848, "Ġdilemma": 8849, "Ġgingerbread": 8850, "Ġpyramid": 8851, "Â±": 8852, "Ġlovable": 8853, "urch": 8854, "Ġassignment": 8855, "Ġsolemnly": 8856, "ĠMaxi": 8857, "Ġobservation": 8858, "ĠPJ": 8859, "power": 8860, "Gaby": 8861, "Ġevidence": 8862, "Lo": 8863, "drop": 8864, "Ġgymnastics": 8865, "Milk": 8866, "Ġallergies": 8867, "ĠVenus": 8868, "Ġunsolved": 8869, "ĠSomebody": 8870, "ĠRacing": 8871, "ĠHopefully": 8872, "Ġflitted": 8873, "Ġpaperwork": 8874, "Ġdazzled": 8875, "great": 8876, "ĠRiver": 8877, "Walter": 8878, "Ġorb": 8879, "Ġcunning": 8880, "LucyÃ¢": 8881, "Ġawait": 8882, "ĠIsnÃ¢": 8883, "Ġgrocer": 8884, "Lexi": 8885, "ÅĵNever": 8886, "ĠDelilah": 8887, "'\".": 8888, "Snowman": 8889, "ĠMakeup": 8890, "Ġwaistcoat": 8891, "Vicky": 8892, "Ġunfinished": 8893, "ĠfunÃ¢": 8894, "ĠGame": 8895, "ĠFawn": 8896, "ĠPeppy": 8897, "Ġcredit": 8898, "Emmie": 8899, "ĠMurphy": 8900, "vi": 8901, "Ġbeggar": 8902, "ĠdaddyÃ¢": 8903, "Ġwhirlpool": 8904, "Ġritual": 8905, "ĠCynthia": 8906, "ĠEnter": 8907, "ĠVolcano": 8908, "ĠSab": 8909, "Louie": 8910, "ĠSafe": 8911, "Ġscraping": 8912, "Ġsongbird": 8913, "Ġdumping": 8914, "Night": 8915, "Ġcheerfulness": 8916, "ĠCuriously": 8917, "Ġagg": 8918, "Ġdependability": 8919, "alancing": 8920, "Flutter": 8921, "ĠhavenÃ¢": 8922, "Ġcauldron": 8923, "Ġhandwriting": 8924, "AH": 8925, "Ġperplexed": 8926, "ĠPico": 8927, "Flappy": 8928, "ĠTeasing": 8929, "Ġ18": 8930, "ĠFamily": 8931, "Isla": 8932, "Ġjuicier": 8933, "ĠEarly": 8934, "webs": 8935, "OOF": 8936, "Ġballroom": 8937, "Ġpossum": 8938, "Ġanxiousness": 8939, "Ġrainforest": 8940, "Ġ``": 8941, "ĠsisterÃ¢": 8942, "Apples": 8943, "ĠSail": 8944, "ĠOrganizing": 8945, "ĠGO": 8946, "Ivy": 8947, "ĠOmar": 8948, "ĠGiving": 8949, "ĠCows": 8950, "ĠWipe": 8951, "Sylvia": 8952, "ĠJoshua": 8953, "Ġsmug": 8954, "Ġpersuasive": 8955, "Ġgleam": 8956, "Ġaccurately": 8957, "Ġflexed": 8958, "ĠMamaÃ¢": 8959, "ĠTVs": 8960, "Upon": 8961, "ĠSleepy": 8962, "frog": 8963, "Shrimp": 8964, "fighters": 8965, "atisfied": 8966, "Ġmasseuse": 8967, "Ġfootprint": 8968, "Ġdryness": 8969, "Ġsquid": 8970, "ssss": 8971, "Åĵthe": 8972, "Lastly": 8973, "ĠSign": 8974, "ĠPrissy": 8975, "Ġheadlights": 8976, "ĠCroc": 8977, "Buy": 8978, "ĠJakeÃ¢": 8979, "Ġforevermore": 8980, "Ġhue": 8981, "Ġsequ": 8982, "ĠDottie": 8983, "Ġturqu": 8984, "ĠBus": 8985, "ulence": 8986, "Ġturbulence": 8987, "Oil": 8988, "ĠCassy": 8989, "Ġkernel": 8990, "ĠMateo": 8991, "ĠRobyn": 8992, "Ġflowerpot": 8993, "East": 8994, "Count": 8995, "even": 8996, "Kiss": 8997, "AA": 8998, "JaneÃ¢": 8999, "Wonderful": 9000, "Ġacknow": 9001, "Ġcommunicating": 9002, "deserved": 9003, "Voice": 9004, "proof": 9005, "Ġtimeout": 9006, "Ġrepresented": 9007, "crack": 9008, "IS": 9009, "ĠBasketball": 9010, "Ġtakeoff": 9011, "ĠlessonÃ¢": 9012, "Ġheirloom": 9013, "Bloom": 9014, "Ġlivingroom": 9015, "ON": 9016, "Ġhelium": 9017, "Ġweakness": 9018, "hurry": 9019, "rizzle": 9020, "Ġdegrees": 9021, "Wilma": 9022, "Aaron": 9023, "ĠSusieÃ¢": 9024, "Ġbasic": 9025, "Grump": 9026, "Ġsparrows": 9027, "Ġexpired": 9028, "Ost": 9029, "ĠPlop": 9030, "Ġpharmacy": 9031, "ĠMystery": 9032, "Brave": 9033, "Ġfluffiest": 9034, "Ġbatting": 9035, "Fetch": 9036, "crease": 9037, "Speed": 9038, "Junior": 9039, "Ġphotographs": 9040, "Ġworthwhile": 9041, "Ġblackberries": 9042, "Ġopponent": 9043, "Ġsequins": 9044, "ĠOxy": 9045, "Ġcoil": 9046, "Ġcoinc": 9047, "web": 9048, "Ġmurmured": 9049, "Ġturquoise": 9050, "ĠBru": 9051, "isappear": 9052, "Thumper": 9053, "ĠHenrietta": 9054, "ĠVanessa": 9055, "Music": 9056, "Mika": 9057, "ĠGar": 9058, "ÅĵEmma": 9059, "ĠSueÃ¢": 9060, "Ġloudspeaker": 9061, "solving": 9062, "Ġdiscomfort": 9063, "Buggy": 9064, "Alicia": 9065, "ÅĵHeÃ¢": 9066, "venture": 9067, "Ġgiggly": 9068, "ÅĵEveryone": 9069, "TommyÃ¢": 9070, "Ġbrontosaurus": 9071, "Ġunbuckled": 9072, "Fuel": 9073, "Ġsewn": 9074, "ek": 9075, "Ġbreathless": 9076, "ĠHappily": 9077, "Ġgurgling": 9078, "Tick": 9079, "runch": 9080, "Midnight": 9081, "ĠdoÃ¢": 9082, "Ġassumed": 9083, "rizzly": 9084, "Soap": 9085, "Act": 9086, "ĠCraig": 9087, "chugga": 9088, "ĠMomÃ¢": 9089, "Ġhandmade": 9090, "Lucie": 9091, "Ġadvanced": 9092, "ĠFestival": 9093, "ĠCrack": 9094, "ĠPOP": 9095, "Ġwispy": 9096, "ÅĵOuch": 9097, "Ġmatchsticks": 9098, "Ġcoincidence": 9099, "ĠFriendly": 9100, "ĠTea": 9101, "Ġworthless": 9102, "fake": 9103, "ĠSkull": 9104, "Burt": 9105, "Sid": 9106, "ĠAlarm": 9107, "ĠPickle": 9108, "Sari": 9109, "ĠJak": 9110, "ĠGem": 9111, "Ġstrewn": 9112, "Ġgrandbaby": 9113, "ĠHeaven": 9114, "ĠRelaxing": 9115, "Nathan": 9116, "measure": 9117, "Intrigued": 9118, "ÅĵTheyÃ¢": 9119, "VE": 9120, "ĠgrandmotherÃ¢": 9121, "Ġsue": 9122, "Ġdotted": 9123, "Scissors": 9124, "ĠBalancing": 9125, "Rad": 9126, "Dare": 9127, "Ġalgae": 9128, "Ġingenuity": 9129, "Ġmelodic": 9130, "Ġarmful": 9131, "Ġasteroids": 9132, "Ġpaperclips": 9133, "Ġdeafness": 9134, "Ġundid": 9135, "Feed": 9136, "ĠCozy": 9137, "Ġ\"\"": 9138, "Ġresolve": 9139, "ĠIgnorant": 9140, "icine": 9141, "Ġspicier": 9142, "Bugs": 9143, "Apple": 9144, "Raise": 9145, "ĠPlanes": 9146, "ici": 9147, "ĠPeterÃ¢": 9148, "ĠGer": 9149, "Ġwoodworker": 9150, "Mud": 9151, "ÅĵSally": 9152, "Opera": 9153, "Purple": 9154, "Dancing": 9155, "Ġhotels": 9156, "ĠME": 9157, "ĠFloyd": 9158, "ĠCraw": 9159, "ĠPerfume": 9160, "Ġalertness": 9161, "ĠTuck": 9162, "ĠJaime": 9163, "ĠFlea": 9164, "Celia": 9165, "ĠSpell": 9166, "ĠThea": 9167, "ĠFee": 9168, "ĠFall": 9169, "Helping": 9170, "Lea": 9171, "Ġfoal": 9172, "ĠcatÃ¢": 9173, "Ġunroll": 9174, "ÅĵWhereÃ¢": 9175, "Crack": 9176, "ĠIcy": 9177, "ooo": 9178, "Animals": 9179, "ĠMosquitoes": 9180, "Blink": 9181, "ĠbutterflyÃ¢": 9182, "Ġzagging": 9183, "Ġparcels": 9184, "Ġunfriendly": 9185, "Save": 9186, "iego": 9187, "Strawberry": 9188, "Ġshipwreck": 9189, "ĠFrancis": 9190, "Ġ40": 9191, "spell": 9192, "Ġchirpy": 9193, "coln": 9194, "press": 9195, "Ġdestroys": 9196, "Casey": 9197, "cloud": 9198, "Ġpouncing": 9199, "Ġloopy": 9200, "ĠHalf": 9201, "Rich": 9202, "ĠhappenedÃ¢": 9203, "ju": 9204, "ĠSurfing": 9205, "ÅĵNice": 9206, "Scarlett": 9207, "Libby": 9208, "Yo": 9209, "Checkmate": 9210, "nip": 9211, "Ġshuffling": 9212, "Louis": 9213, "Ġdangerously": 9214, "âĤ¬âĢ¹": 9215, "Mitch": 9216, "ĠPrize": 9217, "Ġbutts": 9218, "ĠBlueberry": 9219, "ĠEsme": 9220, "ĠMirror": 9221, "ĠSilence": 9222, "ĠSpencer": 9223, "Ġbulging": 9224, "Ġtoothpicks": 9225, "ĠTutor": 9226, "Ġhandlebar": 9227, "Spread": 9228, "ĠHenri": 9229, "ĠPlayful": 9230, "poke": 9231, "ĠMiley": 9232, "ĠButch": 9233, "ĠSven": 9234, "Ġsuprised": 9235, "Rice": 9236, "patter": 9237, "oil": 9238, "Ġwaggled": 9239, "Ġaccurate": 9240, "ÅĵIsnÃ¢": 9241, "Ġfrying": 9242, "Ġbusinessman": 9243, "Ġforeign": 9244, "Ġstaffs": 9245, "Ġdeflated": 9246, "ĠNiki": 9247, "ĠchildrenÃ¢": 9248, "Blake": 9249, "surp": 9250, "Gloria": 9251, "isgusting": 9252, "ĠBalance": 9253, "Ġtrickled": 9254, "Ġrefresh": 9255, "!,": 9256, "ĠHockey": 9257, "Wanda": 9258, "Lill": 9259, "ÅĵTim": 9260, "POP": 9261, "ĠAp": 9262, "ĠcreatureÃ¢": 9263, "Ġhairband": 9264, "Ġabrupt": 9265, "WeÃ¢": 9266, "Rupert": 9267, "Ġhighlight": 9268, "Ġlitte": 9269, "ĠPluto": 9270, "ĠSparkly": 9271, "Realizing": 9272, "ursday": 9273, "Kira": 9274, "ĠLisaÃ¢": 9275, "Ġkeychain": 9276, "Ġpetrol": 9277, "ĠIvan": 9278, "load": 9279, "Agnes": 9280, "ĠHeli": 9281, "Ġdisliked": 9282, "ĠTiffany": 9283, "ĠShelby": 9284, "ĠAntarctica": 9285, "ĠMiki": 9286, "ĠnowÃ¢": 9287, "Ġscalp": 9288, "ĠJeb": 9289, "ĠNatalia": 9290, "ĠPrecious": 9291, "ĠLeslie": 9292, "ĠPatricia": 9293, "Kari": 9294, "Ġeyeing": 9295, "Åĵokay": 9296, "ĠthingsÃ¢": 9297, "ĠSliding": 9298, "ĠMagnets": 9299, "cheap": 9300, "Happily": 9301, "Åĵwhy": 9302, "Ġcrosswalk": 9303, "CHOO": 9304, "ĠFarm": 9305, "Ġconstruct": 9306, "Ġperk": 9307, "Giraffe": 9308, "ĠLincoln": 9309, "Grap": 9310, "Ġlandmarks": 9311, "Ġemerge": 9312, "Ġbzzz": 9313, "Karl": 9314, "Ġappetit": 9315, "ĠCup": 9316, "Ġdebris": 9317, "Ġcoziest": 9318, "ĠEllaÃ¢": 9319, "zagged": 9320, "ĠArt": 9321, "ĠPupil": 9322, "50": 9323, "Ġmatchstick": 9324, "Ġscuttle": 9325, "Skelly": 9326, "Ġbullying": 9327, "Climbing": 9328, "Bailey": 9329, "ĠsonÃ¢": 9330, "Alexa": 9331, "ĠPuzzled": 9332, "Wouldn": 9333, "Smiling": 9334, "Ġbossiness": 9335, ").": 9336, "ĠThursday": 9337, "Ġoverlooked": 9338, "ĠCammy": 9339, "Ġdaunting": 9340, "ĠYarn": 9341, "za": 9342, "always": 9343, "Animal": 9344, "Ġsoc": 9345, "orld": 9346, "Rise": 9347, "Coal": 9348, "Ġbandits": 9349, "ĠGeorgina": 9350, "ĠCircle": 9351, "ĠKiko": 9352, "ĠHelga": 9353, "Eve": 9354, "ĠAhmed": 9355, "ĠIrene": 9356, "ÅĵStay": 9357, "ÅĵEverything": 9358, "Ġ16": 9359, "pretty": 9360, "ĠJessi": 9361, "roar": 9362, "Ġpostmaster": 9363, "Ġsuffo": 9364, "ĠtooÃ¢": 9365, "Bug": 9366, "ĠDiving": 9367, "Ġlottery": 9368, "Ġunbelievable": 9369, "ĠJimmie": 9370, "surprise": 9371, "ĠgoÃ¢": 9372, "Ġagility": 9373, "Ġjerked": 9374, "Ġfireball": 9375, "Ġbattlefield": 9376, "IN": 9377, "Ġtyre": 9378, "Fake": 9379, "Ġmantelpiece": 9380, "\"?": 9381, "ĠtogetherÃ¢": 9382, "ĠMonkeys": 9383, "Ġhottest": 9384, "ĠForgive": 9385, "ĠhomeÃ¢": 9386, "Ġtenderly": 9387, "Psst": 9388, "Ġbleach": 9389, "ĠBit": 9390, "Different": 9391, "ĠAlligators": 9392, "ĠCici": 9393, "ÅĵnoÃ¢": 9394, "Ġoverlooking": 9395, "ĠduckÃ¢": 9396, "Wise": 9397, "ĠCele": 9398, "Worms": 9399, "Nicole": 9400, "ĠMixing": 9401, "ĠRabbie": 9402, "JimmyÃ¢": 9403, "Ġoutline": 9404, "ÅĵUh": 9405, "War": 9406, "ĠRy": 9407, "Ġshimmied": 9408, "Ġmischievously": 9409, "Benji": 9410, "Wiggly": 9411, "ĠRush": 9412, "WOW": 9413, "Ġintruder": 9414, "ĠDull": 9415, "ĠMeasure": 9416, "Ġindivid": 9417, "Ġblackberry": 9418, "ĠHubert": 9419, "ĠmustnÃ¢": 9420, "ĠMuseum": 9421, "Ġpython": 9422, "ĠBillyÃ¢": 9423, "ĠPilot": 9424, "Pray": 9425, "lived": 9426, "ĠPruny": 9427, "ĠTu": 9428, "ĠEthel": 9429, "ĠEgg": 9430, "ryn": 9431, "ĠJoni": 9432, "Ġdeclined": 9433, "Ġawestruck": 9434, "Ġounces": 9435, "ÅĵJane": 9436, "ĠowlÃ¢": 9437, "ĠÃĤ": 9438, "ĠBenÃ¢": 9439, "Dina": 9440, "AN": 9441, "Ġarmies": 9442, "ĠPudding": 9443, "FO": 9444, "Ġsleepyhead": 9445, "Ġpeddling": 9446, "ĠCactus": 9447, "Ġthrive": 9448, "ĠsafeÃ¢": 9449, "ĠPretending": 9450, "Ġaggressive": 9451, "Ġtu": 9452, "Ġwalnuts": 9453, "Ġdungeon": 9454, "ĠGeorgeÃ¢": 9455, "Ġhowls": 9456, "BOOM": 9457, "Ġinhabitants": 9458, "sit": 9459, "Ġrequire": 9460, "ucchini": 9461, "ĠCutting": 9462, "ĠQuiet": 9463, "ĠsurpriseÃ¢": 9464, "arnia": 9465, "Ġfingerprints": 9466, "Wednesday": 9467, "ĠEdgar": 9468, "Grumpy": 9469, "Parrot": 9470, "mint": 9471, "Cut": 9472, "ĠsquirrelÃ¢": 9473, "ĠGene": 9474, "ĠBuilding": 9475, "ĠBluebird": 9476, "ÅĵShe": 9477, "ĠRrrrr": 9478, "Ġbackf": 9479, "Ġskysc": 9480, "eak": 9481, "Ġbeliefs": 9482, "ĠDidn": 9483, "ĠparentÃ¢": 9484, "ĠSia": 9485, "Ġhutch": 9486, "âĢ": 9487, "Ġgraduated": 9488, "ĠSaw": 9489, "Dizzy": 9490, "ĠCheryl": 9491, "Ġentertainment": 9492, "ĠCompassionate": 9493, "ÅĵHurry": 9494, "ĠSofie": 9495, "Georg": 9496, "Ġwickedly": 9497, "ĠGabriel": 9498, "Fill": 9499, "Archie": 9500, "ĠPlanet": 9501, "ĠZeebo": 9502, "ĠCube": 9503, "ĠDoesn": 9504, "ĠPit": 9505, "dragon": 9506, "flying": 9507, "ĠUFO": 9508, "Ġhosepipe": 9509, "AliceÃ¢": 9510, "Ġ:": 9511, "Ġtreadmill": 9512, "Spell": 9513, "Walking": 9514, "Ġcollege": 9515, "Ġgurgle": 9516, "ĠbeeÃ¢": 9517, "Pause": 9518, "Ġconscience": 9519, "CRACK": 9520, "ini": 9521, "ascinated": 9522, "Ġsputtered": 9523, "Ġsunrays": 9524, "Ġantelope": 9525, "Ġcircular": 9526, "Ġdeafening": 9527, "Ġcrinkly": 9528, "ĠGrizzly": 9529, "Ġaudition": 9530, "Goal": 9531, "Actually": 9532, "Bitter": 9533, "Ġdoubtful": 9534, "ÅĵShould": 9535, "Weee": 9536, "Crusty": 9537, "Ġamusing": 9538, "Ġfattest": 9539, "ĠMandyÃ¢": 9540, "Ġnightgow": 9541, "Ġnightgown": 9542, "ĠVince": 9543, "Åĵthat": 9544, "Ġintroduction": 9545, "ĠIda": 9546, "Ġpocus": 9547, "Ġfluffier": 9548, "Hippo": 9549, "Ġspyglass": 9550, "ĠLock": 9551, "Ġi": 9552, "ĠSnoopy": 9553, "ĠNeil": 9554, "ĠOyster": 9555, "ĠSubway": 9556, "Safe": 9557, "ĠMitzi": 9558, "Leila": 9559, "Studying": 9560, "ĠLyle": 9561, "ĠSuzi": 9562, "ĠMountain": 9563, "ĠAJ": 9564, "Jumpy": 9565, "ĠCatrina": 9566, "Ġsnowplow": 9567, "AW": 9568, "ĠGenny": 9569, "Kylie": 9570, "Naomi": 9571, "Zigzag": 9572, "ĠSpotÃ¢": 9573, "Ġsouls": 9574, "Ġcorridors": 9575, "Gavin": 9576, "Ġrepeatedly": 9577, "Ġstrolls": 9578, "ĠparkÃ¢": 9579, "Naughty": 9580, "ertainly": 9581, "Ġapologising": 9582, "Ġwaterproof": 9583, "Ġproducing": 9584, "Ġterms": 9585, "Ġcapturing": 9586, "ĠPipo": 9587, "Ġmouthpiece": 9588, "ĠBing": 9589, "Ġzucchini": 9590, "Ġbuckling": 9591, "ĠSettle": 9592, "BQ": 9593, "ĠBBQ": 9594, "ĠNarnia": 9595, "Ġfriendliest": 9596, "ĠClifford": 9597, "ĠAimee": 9598, "ĠNeedles": 9599, "Kick": 9600, "ĠfishÃ¢": 9601, "Art": 9602, "Ġpretzels": 9603, "Ġhippopotamus": 9604, "ancient": 9605, "ĠMonty": 9606, "bite": 9607, "Ġmetres": 9608, "Ġbeacon": 9609, "Ġrifle": 9610, "ĠBernard": 9611, "put": 9612, "Ġhalt": 9613, "ĠCable": 9614, "Ġteddybear": 9615, "Calm": 9616, "Opal": 9617, "Exploring": 9618, "Ġbowstring": 9619, "Ġrejected": 9620, "Ġspilt": 9621, "XIT": 9622, "bush": 9623, "ĠSpy": 9624, "ĠMagnet": 9625, "ĠThief": 9626, "Ġsmartness": 9627, "Cassie": 9628, "ĠMildred": 9629, "ĠBucky": 9630, "Ġscissor": 9631, "Ġhoneybees": 9632, "Natalie": 9633, "Reggie": 9634, "ĠRaccoon": 9635, "Early": 9636, "eee": 9637, "ĠWrap": 9638, "ĠRescue": 9639, "Ġastonishment": 9640, "ĠDeborah": 9641, "ĠElvis": 9642, "Ġsorcerer": 9643, "Ġlumberman": 9644, "ahl": 9645, "ahlia": 9646, "ĠKnife": 9647, "ĠPuddle": 9648, "ĠAvocado": 9649, "Gran": 9650, "Ġcul": 9651, "Ġstarving": 9652, "Furry": 9653, "Ġtrundled": 9654, "Ġresourcefulness": 9655, "Ġprancing": 9656, "Ġcontribute": 9657, "Ġportrait": 9658, "Ġreassurance": 9659, "Ġcoaxed": 9660, "ĠPJs": 9661, "ĠChurch": 9662, "Ġallergy": 9663, "ĠfourÃ¢": 9664, "Pup": 9665, "ĠSprite": 9666, "ÅĵYuck": 9667, "Ġsheepdog": 9668, "Chewy": 9669, "Jacklyn": 9670, "ĠAlexis": 9671, "Black": 9672, "Ġshatters": 9673, "YAY": 9674, "ĠJail": 9675, "Writing": 9676, "ÅĵOoh": 9677, "Ġstairway": 9678, "Squeeze": 9679, "Ġtractors": 9680, "Ġghostly": 9681, "Ġexposed": 9682, "ĠQ": 9683, "âĤ¬!": 9684, "Ġtaxes": 9685, "Ġbounty": 9686, "ÅĵEmily": 9687, "from": 9688, "ĠMurray": 9689, "Ġenjoyment": 9690, "ĠwaterÃ¢": 9691, "ĠMaxwell": 9692, "Ġthankfulness": 9693, "Ġscarfs": 9694, "Ġ0": 9695, "IK": 9696, "UM": 9697, "ĠSadness": 9698, "Ġscavenger": 9699, "Ġuncur": 9700, "OM": 9701, "ÅĵYesÃ¢": 9702, "Es": 9703, "Teach": 9704, "Fix": 9705, "Ġspiderweb": 9706, "Aiden": 9707, "ĠSlim": 9708, "sign": 9709, "alia": 9710, "ĠUsually": 9711, "Ġuntying": 9712, "Ġcomplaint": 9713, "Ġporcelain": 9714, "Practice": 9715, "Ġskillful": 9716, "Ġthyme": 9717, "ÅĵSurprise": 9718, "Ġseafood": 9719, "ÅĵHmm": 9720, "Ġpacifier": 9721, "Oy": 9722, "ĠElli": 9723, "pe": 9724, "ĠBeebee": 9725, "ĠMicroscope": 9726, "ĠFizz": 9727, "ĠGarfield": 9728, "ĠSquishy": 9729, "ĠWhoÃ¢": 9730, "Ġglancing": 9731, "ĠColorful": 9732, "Ġhoneybee": 9733, "sun": 9734, "ĠmummyÃ¢": 9735, "ĠIgnoring": 9736, "ÅĵJill": 9737, "Ġneglected": 9738, "ĠBrilliant": 9739, "Ġminus": 9740, "ÅĵMary": 9741, "âĤ¬âĦ¢!": 9742, "ĠSelma": 9743, "Gum": 9744, "Ġlimps": 9745, "ÅĵNoÃ¢": 9746, "Ġbefriend": 9747, "ĠDipper": 9748, "Click": 9749, "pow": 9750, "Ġflavorful": 9751, "Ġthus": 9752, "watch": 9753, "Polish": 9754, "ĠTiki": 9755, "Penguin": 9756, "ĠTH": 9757, "ĠUpstairs": 9758, "Police": 9759, "Ġsandbags": 9760, "Ġbedpost": 9761, "ĠKingÃ¢": 9762, "Ġpunct": 9763, "ĠFascinated": 9764, "Bambi": 9765, "Ġlasagna": 9766, "Ġgutter": 9767, "ÅĵHelloÃ¢": 9768, "Kitten": 9769, "Ġsniffle": 9770, "Cuddles": 9771, "Ġchemical": 9772, "Ġwaterfalls": 9773, "ĠAya": 9774, "ruff": 9775, "struck": 9776, "Bree": 9777, "Ġgreedily": 9778, "Sign": 9779, "Ġovergrown": 9780, "Grandfather": 9781, "ĠDish": 9782, "ĠItchy": 9783, "ĠMut": 9784, "Ġrepresents": 9785, "Ve": 9786, "Ġweeps": 9787, "Ġcenturies": 9788, "Gerald": 9789, "Ġaimlessly": 9790, "Ġsmartly": 9791, "nment": 9792, "Ġcruise": 9793, "Ġovation": 9794, "ĠpiÃĥ": 9795, "Ġstunt": 9796, "ĠPuzzles": 9797, "Ġspiciness": 9798, "Ġgazebo": 9799, "ĠAx": 9800, "Ġboa": 9801, "ĠSammie": 9802, "Ġlifestyle": 9803, "ĠWall": 9804, "Arf": 9805, "ĠTherefore": 9806, "ĠFit": 9807, "ianca": 9808, "ĠSage": 9809, "ĠPistol": 9810, "ĠMug": 9811, "indi": 9812, "ologize": 9813, "TV": 9814, "prit": 9815, "Ġculprit": 9816, "ĠExc": 9817, "Ignorant": 9818, "Nut": 9819, "ĠIgnorance": 9820, "Ġsuffocated": 9821, "Ġgrapefruit": 9822, "ĠTobyÃ¢": 9823, "pour": 9824, "Ġ*": 9825, "Raven": 9826, "Incredible": 9827, "Ġspecialness": 9828, "Quiet": 9829, "Ġwallpaper": 9830, "ĠUr": 9831, "ng": 9832, "Ġorphanage": 9833, "Ġedible": 9834, "ĠWon": 9835, "Attention": 9836, "Ġimpul": 9837, "study": 9838, "Ġemerging": 9839, "Otto": 9840, "Ġpursuit": 9841, "Ġwrinkling": 9842, "Ġphysical": 9843, "Ġoverboard": 9844, "Ġwhoa": 9845, "Gill": 9846, "Ġshuddered": 9847, "ĠLawyer": 9848, "ED": 9849, "ĠBikes": 9850, "Ġefficiently": 9851, "Ġcruising": 9852, "Ġbarbeque": 9853, "Pony": 9854, "Ġworkout": 9855, "Ġdreary": 9856, "Mystery": 9857, "ĠSil": 9858, "Ġbulge": 9859, "Ġsacrifice": 9860, "Ġbulky": 9861, "Tippy": 9862, "ĠJia": 9863, "Ġtrickling": 9864, "ĠHopping": 9865, "Sheila": 9866, "Åł": 9867, "cence": 9868, "Ġinnocence": 9869, "ĠSim": 9870, "JoeÃ¢": 9871, "Ġinstinct": 9872, "Ġburg": 9873, "Ġworkben": 9874, "Ġworkbench": 9875, "rug": 9876, "Ġjerseys": 9877, "pectedly": 9878, "Encouraged": 9879, "Ġsocial": 9880, "Ġuglier": 9881, "Alyssa": 9882, "ĠCeline": 9883, "ĠprincessÃ¢": 9884, "iping": 9885, "ĠDill": 9886, "ĠPebble": 9887, "Ġwarehouse": 9888, "Ġcackling": 9889, "``": 9890, "Ġconclusions": 9891, "Ġlilypad": 9892, "Buttons": 9893, "ĠCalvin": 9894, "ĠShrimpy": 9895, "Ġninja": 9896, "ĠHurricane": 9897, "Gert": 9898, "Ġwildflower": 9899, "ĠDaffy": 9900, "ĠEdna": 9901, "Paddy": 9902, "Ġlotus": 9903, "ĠBandit": 9904, "ĠNeedle": 9905, "ĠMicrophone": 9906, "anjo": 9907, "Ġimaginable": 9908, "Ġtightness": 9909, "Ġunwanted": 9910, "Ġinquired": 9911, "ÅĵOpen": 9912, "ĠMule": 9913, "mix": 9914, "Muffy": 9915, "Ġconcluded": 9916, "ĠRiko": 9917, "ÅĵMay": 9918, "Ġsaliva": 9919, "ĠFirefighters": 9920, "ÅĵJim": 9921, "ĠOtty": 9922, "rocket": 9923, "Miraculously": 9924, "Ġweekly": 9925, "Ġscuffed": 9926, "ĠupÃ¢": 9927, "ĠFactory": 9928, "ĠBlackbeard": 9929, "Ġvolleyball": 9930, "ĠWish": 9931, "Fle": 9932, "Ġnurture": 9933, "Cl": 9934, "ÅĵHop": 9935, "ĠGeese": 9936, "'?": 9937, "Ġflows": 9938, "Ġwrestled": 9939, "Ġembracing": 9940, "Beatrice": 9941, "Ġjingly": 9942, "uisance": 9943, "Ġnuisance": 9944, "ĠTilda": 9945, "Ġnosiness": 9946, "Ġgroundhog": 9947, "Kind": 9948, "lide": 9949, "ĠDelivery": 9950, "rawberries": 9951, "Ġintuition": 9952, "climb": 9953, "ĠShells": 9954, "ĠCecilia": 9955, "ĠEagerly": 9956, "washer": 9957, "Ġmesmerizing": 9958, "Ġgrief": 9959, "Ġgovernment": 9960, "Ġdisk": 9961, "Bridget": 9962, "ĠWoman": 9963, "ĠWave": 9964, "Ġcarefulness": 9965, "Ġclownfish": 9966, "ĠPlane": 9967, "Ġrosebush": 9968, "Ġpredicted": 9969, "burger": 9970, "Ġinterf": 9971, "ĠRae": 9972, "Flash": 9973, "was": 9974, "ĠhelpÃ¢": 9975, "Ġamulet": 9976, "Ġbullfrog": 9977, "Barney": 9978, "Ġcalculator": 9979, "ĠRiri": 9980, "ĠGrandchild": 9981, "ĠDud": 9982, "ĠTabitha": 9983, "ĠMiko": 9984, "Ġwildcat": 9985, "ĠJuli": 9986, "ĠFudge": 9987, "ĠOcto": 9988, "ĠteacherÃ¢": 9989, "ÅĵOnce": 9990, "Rrrr": 9991, "Ġfidget": 9992, "Ġdownward": 9993, "Marvin": 9994, "ĠDippy": 9995, "ÅĵOur": 9996, "Paint": 9997, "Ġsulk": 9998, "Exercise": 9999, "ĠRazors": 10000, "Sabrina": 10001, "Certainly": 10002, "Ġintervene": 10003, "ÅĵTry": 10004, "Ġflatten": 10005, "Eek": 10006, "Ġuncont": 10007, "ĠMillieÃ¢": 10008, "Wrong": 10009, "Ġmuzzle": 10010, "Ġspotlight": 10011, "Ġtearful": 10012, "ĠFace": 10013, "Blub": 10014, "mmm": 10015, "Measure": 10016, "Ġeducation": 10017, "Bike": 10018, "Ġsleepily": 10019, "ĠFat": 10020, "eoff": 10021, "Ignore": 10022, "Ġsquiggled": 10023, "Harvey": 10024, "Ġrepresent": 10025, "Ġslyly": 10026, "ĠSuperhero": 10027, "ĠanimalsÃ¢": 10028, "Ġcampus": 10029, "Duke": 10030, "Ġoutgrown": 10031, "Ġjudg": 10032, "Zane": 10033, "ĠIgloo": 10034, "ĠMeasuring": 10035, "Ġunin": 10036, "ĠGrumbles": 10037, "Ġshallows": 10038, "Ġburglar": 10039, "Ġfiber": 10040, "ĠsomethingÃ¢": 10041, "Boat": 10042, "Silver": 10043, "ĠBubu": 10044, "ĠYogi": 10045, "Emergency": 10046, "Andrea": 10047, "SamÃ¢": 10048, "istur": 10049, "Ġfuriously": 10050, "Ġcharcoal": 10051, "Ġunhappiness": 10052, "Åĵcan": 10053, "Ġmercury": 10054, "Ġpeg": 10055, "Ġgritted": 10056, "ĠSaying": 10057, "Ġeggplant": 10058, "ĠWheels": 10059, "Fair": 10060, "Somebody": 10061, "Pickles": 10062, "Herb": 10063, "Ġcoupon": 10064, "usual": 10065, "ĠSafari": 10066, "ĠMacDonald": 10067, "ĠHelmets": 10068, "ĠJuicy": 10069, "ĠMojo": 10070, "ĠOreo": 10071, "Ġdwar": 10072, "ĠBippy": 10073, "ĠHattie": 10074, "Ġmeerkat": 10075, "tta": 10076, "ĠKi": 10077, "ĠBiddy": 10078, "Ġwhooping": 10079, "shut": 10080, "Ġpeddle": 10081, "limits": 10082, "Pack": 10083, "Ġflopping": 10084, "ĠNails": 10085, "Ġconcoction": 10086, "Mill": 10087, "Ġlaundromat": 10088, "ĠHereÃ¢": 10089, "ĠMarcia": 10090, "Ġborrows": 10091, "ĠDiego": 10092, "inch": 10093, "Ġretreated": 10094, "LE": 10095, "weigh": 10096, "Ġadvertising": 10097, "Felicity": 10098, "Ġshushed": 10099, "Ġinsignificant": 10100, "Ġcycling": 10101, "Ġchubbier": 10102, "Ġdullness": 10103, "Truth": 10104, "ĠHoping": 10105, "ĠPillow": 10106, "Ġtaping": 10107, "Ġunbuckle": 10108, "Fanny": 10109, "Ġoutlook": 10110, "Ġmilkman": 10111, "Ancient": 10112, "ĠWarm": 10113, "ĠCobwebs": 10114, "Darling": 10115, "Ġunafraid": 10116, "rofessor": 10117, "Ġoutn": 10118, "Ġoutnumbered": 10119, "butter": 10120, "ĠMelvin": 10121, "Ġgleeful": 10122, "Ġwrestle": 10123, "Ġensuring": 10124, "Sebastian": 10125, "Ġ_": 10126, "Ġswatting": 10127, "ĠPretend": 10128, "ĠEgypt": 10129, "Ġcider": 10130, "udgy": 10131, "ĠTerence": 10132, "SallyÃ¢": 10133, "Nine": 10134, "Ġdissolve": 10135, "bitter": 10136, "Trevor": 10137, "Ġcradling": 10138, "Octop": 10139, "Ġloan": 10140, "Ġfigurine": 10141, "Oat": 10142, "expensive": 10143, "Famous": 10144, "ĠWorld": 10145, "Ġscatted": 10146, "Ġindividual": 10147, "Ġtrickle": 10148, "ĠEileen": 10149, "Better": 10150, "Ġconfirmed": 10151, "Blow": 10152, "ĠelephantÃ¢": 10153, "ĠMixer": 10154, "ĠKaley": 10155, "Ġtheft": 10156, "Ġadvisors": 10157, "ĠHorn": 10158, "ĠFlexi": 10159, "ĠBip": 10160, "afa": 10161, "ĠDahlia": 10162, "nife": 10163, "ĠAlli": 10164, "ĠMiffy": 10165, "ĠKathryn": 10166, "ĠSassy": 10167, "ĠWayne": 10168, "ĠKaylie": 10169, "ĠKrista": 10170, "Ġbaffled": 10171, "Ġmocking": 10172, "fair": 10173, "Balance": 10174, "Ġpetrified": 10175, "ĠFearful": 10176, "forgive": 10177, "fine": 10178, "News": 10179, "Ġdownpour": 10180, "follow": 10181, "Ġunfurled": 10182, "Deliver": 10183, "Ġcoaxing": 10184, "Brandy": 10185, "Ġtranquility": 10186, "Ġclattered": 10187, "Tie": 10188, "lion": 10189, "Ġgratefulness": 10190, "Ġbonus": 10191, "until": 10192, "ĠwhoÃ¢": 10193, "Ġmeatball": 10194, "Ġdemonstrate": 10195, "Ġactual": 10196, "Ġbuoy": 10197, "ĠSunlight": 10198, "ÅĵwhatÃ¢": 10199, "ĠawayÃ¢": 10200, "Ġpeppermint": 10201, "ĠAppreciate": 10202, "ĠClarence": 10203, "cont": 10204, "ĠcarefulÃ¢": 10205, "ĠAnnalise": 10206, "ÅĵHooray": 10207, "Tuesday": 10208, "Alfred": 10209, "Nibbles": 10210, "GE": 10211, "Åĵplease": 10212, "pray": 10213, "ĠAidan": 10214, "Ġgeode": 10215, "gret": 10216, "Fer": 10217, "Caleb": 10218, "âĤ¬Â¦\"": 10219, "Lottie": 10220, "Tired": 10221, "ĠwitchÃ¢": 10222, "bing": 10223, "ĠBam": 10224, "Ġabsence": 10225, "Ġgraciously": 10226, "tree": 10227, "ĠpersonÃ¢": 10228, "Ġnightly": 10229, "Ġworship": 10230, "ĠgrandpaÃ¢": 10231, "Puff": 10232, "ĠnatureÃ¢": 10233, "Miguel": 10234, "Crocod": 10235, "mile": 10236, "Ġexclaiming": 10237, "ĠDarren": 10238, "Ġcomfiest": 10239, "ÅĵH": 10240, "Ġ14": 10241, "Oysters": 10242, "mbol": 10243, "Curiously": 10244, "Georgia": 10245, "icycle": 10246, "Ġraisin": 10247, "ĠKasey": 10248, "ĠJetty": 10249, "ĠCity": 10250, "12": 10251, "ĠRake": 10252, "pipe": 10253, "ĠAisha": 10254, "ĠZebby": 10255, "ĠPlum": 10256, "ĠRa": 10257, "ĠMilli": 10258, "Ġmoonflower": 10259, "fit": 10260, "Ġdrooling": 10261, "ĠNightmares": 10262, "Mosquitoes": 10263, "Ġsums": 10264, "Ġ?\"": 10265, "ĠideaÃ¢": 10266, "Ġrumbly": 10267, "grandmother": 10268, "Surfing": 10269, "Ġputted": 10270, "Ġkilograms": 10271, "flexible": 10272, "Ġuncontrollably": 10273, "ÅĵDear": 10274, "ÅĵSusie": 10275, "Wiggles": 10276, "ĠAshlee": 10277, "Ġinflatable": 10278, "rock": 10279, "turn": 10280, "Ġwildness": 10281, "UN": 10282, "ĠmonsterÃ¢": 10283, "Ġscorp": 10284, "Ġgripping": 10285, "Ġplatter": 10286, "ĠAstrid": 10287, "eoffrey": 10288, "ĠboatÃ¢": 10289, "Ġtwang": 10290, "ĠCells": 10291, "Ostrich": 10292, "Sand": 10293, "ĠCliff": 10294, "Ġtweezers": 10295, "Ġsparkliest": 10296, "ructive": 10297, "Ġmealtime": 10298, "Ġresume": 10299, "Ġabruptly": 10300, "flavored": 10301, "Ġnimble": 10302, "ĠPowder": 10303, "Â©,": 10304, "crazy": 10305, "Ġlurked": 10306, "Ġwhirlwind": 10307, "clack": 10308, "ĠManuel": 10309, "ĠDax": 10310, "ĠEskimos": 10311, "ĠGrandpaÃ¢": 10312, "Ġpromptly": 10313, "Pia": 10314, "Nikki": 10315, "Ġgenu": 10316, "Ġtranquil": 10317, "ĠDalia": 10318, "Ġrhythmic": 10319, "rozen": 10320, "ĠPriya": 10321, "Ġkindling": 10322, "Ġeyesight": 10323, "Stripey": 10324, "EXIT": 10325, "Ġcranberry": 10326, "Ġgrasslands": 10327, "Ġfrequently": 10328, "Ġresur": 10329, "Caterpillar": 10330, "Sonia": 10331, "ÅĵKeep": 10332, "ĠPeeps": 10333, "ĠSavannah": 10334, "Glow": 10335, "ĠBobbyÃ¢": 10336, "Ġswatter": 10337, "peace": 10338, "Kite": 10339, "ĠCub": 10340, "ĠBruiser": 10341, "ĠKimmie": 10342, "ĠJaz": 10343, "Ġquiche": 10344, "ĠRisa": 10345, "ĠMonarch": 10346, "Ġathlete": 10347, "ĠSpoon": 10348, "TimmyÃ¢": 10349, "ĠBanjo": 10350, "ĠZim": 10351, "ĠBeezy": 10352, "Ġweasel": 10353, "ĠSabine": 10354, "Cream": 10355, "Ġhoisted": 10356, "wait": 10357, "Ġtropical": 10358, "Ġreadily": 10359, "---": 10360, "ĠToad": 10361, "ĠMummyÃ¢": 10362, "Ġcourteous": 10363, "BobÃ¢": 10364, "ĠMumÃ¢": 10365, "Ġfortress": 10366, "ÅĵJenny": 10367, "Ġplaything": 10368, "ulge": 10369, "Elise": 10370, "ĠFurball": 10371, "Åĵlook": 10372, "Gizmo": 10373, "Ġrestroom": 10374, "ĠCandle": 10375, "Jogging": 10376, "Ġgulps": 10377, "Ġappre": 10378, "Weird": 10379, "fold": 10380, "ĠPeteÃ¢": 10381, "ĠPea": 10382, "Mixing": 10383, "Ġsprained": 10384, "Ġunle": 10385, "ĠOwls": 10386, "Fancy": 10387, "Po": 10388, "Ġrefreshment": 10389, "ĠBatman": 10390, "ĠBlueberries": 10391, "ĠEiff": 10392, "ĠEiffel": 10393, "Ġmisfort": 10394, "Ġmisfortune": 10395, "Ġsinister": 10396, "Ġbib": 10397, "ĠrightÃ¢": 10398, "ĠMedicine": 10399, "Ġcozied": 10400, "Ġsprain": 10401, "Ġdeparture": 10402, "ĠApologize": 10403, "Ġhandprint": 10404, "ĠAurora": 10405, "Ġdestructive": 10406, "Sailing": 10407, "ĠBraveheart": 10408, "Ġstrategies": 10409, "Ġhoarse": 10410, "Ġclatter": 10411, "ĠwasÃ¢": 10412, "ĠAdriana": 10413, "Ġtension": 10414, "Ġjiffy": 10415, "ĠMarcie": 10416, "Sydney": 10417, "filthy": 10418, "Ġpumps": 10419, "ru": 10420, "ĠLetty": 10421, "ĠtimeÃ¢": 10422, "Ġclothespins": 10423, "Jumping": 10424, "ĠFan": 10425, "Ġcongratulating": 10426, "ĠCowboy": 10427, "EN": 10428, "Bingo": 10429, "Ġbounc": 10430, "ĠZone": 10431, "Cotton": 10432, "Ġ!\"": 10433, "ĠSoccer": 10434, "ĠKeiko": 10435, "ĠBury": 10436, "Lynn": 10437, "disgusting": 10438, "Ġinconvenience": 10439, "Sis": 10440, "ĠangelÃ¢": 10441, "Snug": 10442, "Ġcheeseburger": 10443, "Ġexclude": 10444, "ĠAmb": 10445, "beam": 10446, "Ġmeditate": 10447, "ÅĵElla": 10448, "ĠThompson": 10449, "truck": 10450, "Ġstationmaster": 10451, "Ġhairstylist": 10452, "Biff": 10453, "Ġfalcon": 10454, "Dale": 10455, "ĠTelevision": 10456, "Robyn": 10457, "ĠTraffic": 10458, "Ġbison": 10459, "rudence": 10460, "ĠNaya": 10461, "Ġsleepiness": 10462, "Ġsawmill": 10463, "Ġgeyser": 10464, "ĠNoodle": 10465, "ĠPetra": 10466, "ĠYvonne": 10467, "Ġsimulator": 10468, "Ġtaunted": 10469, "Ġimpolite": 10470, "ĠFrilly": 10471, "ĠTeaspoon": 10472, "Ġdwarf": 10473, "ĠFlorence": 10474, "ĠJock": 10475, "utch": 10476, "ĠKiwi": 10477, "ĠSteppy": 10478, "ĠVic": 10479, "ĠMunchy": 10480, "ĠMutts": 10481, "Ġstyling": 10482, "Margo": 10483, "ĠinsideÃ¢": 10484, "Adventure": 10485, "ĠVegetables": 10486, "Ġhoarding": 10487, "pink": 10488, "Ġgills": 10489, "ĠHumans": 10490, "Mackenzie": 10491, "ĠSatisfied": 10492, "Ġdrool": 10493, "Barber": 10494, "Ġcatfish": 10495, "Ġeggshells": 10496, "Ġverb": 10497, "Ġ35": 10498, "first": 10499, "MaryÃ¢": 10500, "ĠWolves": 10501, "Jail": 10502, "ĠMikeÃ¢": 10503, "Bat": 10504, "Parent": 10505, "Ġmimic": 10506, "ĠEar": 10507, "Ġreuse": 10508, "Huh": 10509, "Ġraincloud": 10510, "Ġscrapbook": 10511, "ĠImag": 10512, "Fuzz": 10513, "Ġvul": 10514, "ĠBaseball": 10515, "RE": 10516, "ĠCreative": 10517, "ĠNapkin": 10518, "ĠAlma": 10519, "ĠForgiving": 10520, "Squirrels": 10521, "ĠCass": 10522, "Ġpillowcase": 10523, "ĠProfessor": 10524, "Ġexpertly": 10525, "ĠHenryÃ¢": 10526, "Forgive": 10527, "Ġcollectors": 10528, "Ġdoodling": 10529, "Ġassist": 10530, "Ġprying": 10531, "Ġnois": 10532, "Ġoutran": 10533, "ĠSO": 10534, "Åĵif": 10535, "ĠJocelyn": 10536, "ĠRachelÃ¢": 10537, "ĠAngels": 10538, "ĠWire": 10539, "ĠRhonda": 10540, "skating": 10541, "ĠHumpty": 10542, "ĠSaul": 10543, "uous": 10544, "Goat": 10545, "Ġsnowbank": 10546, "Jemima": 10547, "Ġreliability": 10548, "ĠID": 10549, "Ġsnorkels": 10550, "Ġsyn": 10551, "Ġstreetlight": 10552, "ĠExpress": 10553, "MandyÃ¢": 10554, "grandfather": 10555, "Ġcontrast": 10556, "Ġasteroid": 10557, "ĠLuigi": 10558, "muffs": 10559, "Ġearmuffs": 10560, "Mateo": 10561, "Pasta": 10562, "Ġbronto": 10563, "Ġcontraption": 10564, "Ratty": 10565, "Ġsandman": 10566, "ĠPoint": 10567, "Ġhugger": 10568, "aqueline": 10569, "ĠJorge": 10570, "ĠWreck": 10571, "ĠWobble": 10572, "ĠGrill": 10573, "Fris": 10574, "ĠHandle": 10575, "Ġcircumstances": 10576, "ĠEarthquakes": 10577, "Crabs": 10578, "Eli": 10579, "ACHOO": 10580, "Didn": 10581, "ĠWilfred": 10582, "Raj": 10583, "squawk": 10584, "ĠKanga": 10585, "Luisa": 10586, "ĠTeo": 10587, "ĠSeb": 10588, "ĠDudley": 10589, "Clive": 10590, "Ġpox": 10591, "ĠEtta": 10592, "ĠCameron": 10593, "oko": 10594, "ĠKris": 10595, "ĠR2": 10596, "ĠMadi": 10597, "Ġlitt": 10598, "Ġunripe": 10599, "Cy": 10600, "Lawyer": 10601, "Pan": 10602, "Ġbeneficial": 10603, "ĠmonkeyÃ¢": 10604, "Muse": 10605, "Museum": 10606, "walk": 10607, "Yea": 10608, "SE": 10609, "ĠbetterÃ¢": 10610, "Ġtemporary": 10611, "mless": 10612, "merged": 10613, "Ġcrisps": 10614, "Linny": 10615, "Ġthriving": 10616, "Debby": 10617, "ĠFae": 10618, "Ġfeedback": 10619, "Ġferociously": 10620, "Ġwalt": 10621, "Weigh": 10622, "ĠOlga": 10623, "did": 10624, "Flying": 10625, "AD": 10626, "Ġorphan": 10627, "quired": 10628, "Rare": 10629, "Ġavalanche": 10630, "Ġwells": 10631, "Waff": 10632, "Ġcombining": 10633, "ĠSpiderman": 10634, "Ġefficient": 10635, "ĠHU": 10636, "Wish": 10637, "Arnold": 10638, "ĠallÃ¢": 10639, "ÅĵYippee": 10640, "arf": 10641, "aww": 10642, "abian": 10643, "Ġmuttering": 10644, "Ġirresponsible": 10645, "ĠPaulÃ¢": 10646, "ÅĵRun": 10647, "Ġjudgment": 10648, "Ġwrung": 10649, "Blocks": 10650, "Ġpickup": 10651, "crash": 10652, "ĠBasil": 10653, "Ġtugboat": 10654, "Ġupbeat": 10655, "building": 10656, "ĠEntry": 10657, "Ġoutgoing": 10658, "Ġsorrows": 10659, "shhh": 10660, "Biscuit": 10661, "Ġmadly": 10662, "Ġfurball": 10663, "Ġapprovingly": 10664, "Fern": 10665, "ÅĵHiÃ¢": 10666, "Lie": 10667, "Ġvastness": 10668, "Ġhusks": 10669, "Ġcitizen": 10670, "Fay": 10671, "Jeffrey": 10672, "20": 10673, "Ġoffended": 10674, "Ġgenuine": 10675, "ĠSuperman": 10676, "Kit": 10677, "Åĵcome": 10678, "Knowing": 10679, "Ġstorytelling": 10680, "ĠHorsie": 10681, "Trying": 10682, "ĠSonja": 10683, "Call": 10684, "Ġracetrack": 10685, "Ġuniversities": 10686, "humble": 10687, "ĠObey": 10688, "Ġgnaw": 10689, "Ġconcrete": 10690, "Soccer": 10691, "fix": 10692, "ĠMooMoo": 10693, "ĠRumble": 10694, "Lift": 10695, "ĠBattery": 10696, "Diane": 10697, "rett": 10698, "ĠScrew": 10699, "Ġkaleidoscope": 10700, "GO": 10701, "irk": 10702, "Scruffy": 10703, "ĠJewelry": 10704, "Spirit": 10705, "DaisyÃ¢": 10706, "ĠAlby": 10707, "ÅĵUse": 10708, "adine": 10709, "IP": 10710, "Ġshattering": 10711, "ĠSymbol": 10712, "arcy": 10713, "Ġbinocular": 10714, "ĠEither": 10715, "Ġdictionaries": 10716, "ĠExhausted": 10717, "rovide": 10718, "Ġbandit": 10719, "ĠSpoiled": 10720, "Katrina": 10721, "ĠMacie": 10722, "ĠBuckle": 10723, "ĠSnuggle": 10724, "ĠFinley": 10725, "ĠSierra": 10726, "Ġlocksmith": 10727, "ĠCindi": 10728, "ĠSudha": 10729, "ĠTiddles": 10730, "loyd": 10731, "urpy": 10732, "ĠImmy": 10733, "ĠPrick": 10734, "ĠKenzie": 10735, "ĠFergus": 10736, "uckoo": 10737, "ÅĵQuick": 10738, "Ġwhiteboard": 10739, "ĠbarberÃ¢": 10740, "ĠExcitement": 10741, "ĠDVDs": 10742, "Ġreduce": 10743, "spoil": 10744, "ĠvoiceÃ¢": 10745, "Eager": 10746, "Ġconclusion": 10747, "Lying": 10748, "RR": 10749, "Officer": 10750, "Kangaroo": 10751, "Ġpronounce": 10752, "ĠScarecrow": 10753, "Ġinvinc": 10754, "Ġinvincible": 10755, "ĠSaraÃ¢": 10756, "Ġchipping": 10757, "ĠSophieÃ¢": 10758, "ĠGiggling": 10759, "ĠtomorrowÃ¢": 10760, "Misty": 10761, "Ġcontribution": 10762, "Awww": 10763, "Unique": 10764, "Purr": 10765, "Paper": 10766, "ĠlifeÃ¢": 10767, "Ġsorrowful": 10768, "Tin": 10769, "Ġunleashed": 10770, "Ġpm": 10771, "Rocco": 10772, "Ġconsumed": 10773, "Sack": 10774, "ĠhorseÃ¢": 10775, "eww": 10776, "Ġapplying": 10777, "Ġwalnut": 10778, "Ġprowling": 10779, "Ġnickname": 10780, "Ġhumps": 10781, "Ġ4th": 10782, "ĠGiggle": 10783, "snip": 10784, "ĠZeb": 10785, "ĠAndyÃ¢": 10786, "Ġblindly": 10787, "ipping": 10788, "Ġdeb": 10789, "Ġcolleagues": 10790, "Ġnoisily": 10791, "Ġpaperclip": 10792, "Ġretreat": 10793, "ĠFootball": 10794, "DANGER": 10795, "Bud": 10796, "Ġcheckmate": 10797, "ĠSilvia": 10798, "Ġshatter": 10799, "Ġepic": 10800, "picking": 10801, "Prune": 10802, "Avocado": 10803, "ĠRylee": 10804, "ĠFixer": 10805, "ĠwelcomeÃ¢": 10806, "Ġmeanly": 10807, "Ġbouncier": 10808, "aliyah": 10809, "\"'": 10810, "Esme": 10811, "Elliot": 10812, "ĠDaveÃ¢": 10813, "Ġcomposed": 10814, "AAAAH": 10815, "ÅĵLeave": 10816, "ĠDouglas": 10817, "ĠPlastic": 10818, "Ġcowardly": 10819, "deaf": 10820, "ĠServing": 10821, "bly": 10822, "ĠGinnie": 10823, "Ġhandbag": 10824, "Ġfarewells": 10825, "Ġdescription": 10826, "Ġmeekly": 10827, "Toast": 10828, "ĠSpeckles": 10829, "ĠStubborn": 10830, "ĠDirt": 10831, "Ġmirage": 10832, "ĠChief": 10833, "ĠGino": 10834, "Ġinterfere": 10835, "Iris": 10836, "ĠMyra": 10837, "ĠEvil": 10838, "Resist": 10839, "Ġspying": 10840, "Way": 10841, "Ġpiggyback": 10842, "Fantastic": 10843, "ĠCompassion": 10844, "ĠPict": 10845, "ĠgiantÃ¢": 10846, "JimÃ¢": 10847, "ĠknightÃ¢": 10848, "ĠYul": 10849, "ĠFredÃ¢": 10850, "ĠJeffery": 10851, "Thea": 10852, "Disappear": 10853, "ĠLuz": 10854, "strong": 10855, "Frisky": 10856, "oxygen": 10857, "FF": 10858, "Ġboldness": 10859, "Bumble": 10860, "Ġhygiene": 10861, "ĠwayÃ¢": 10862, "Ġillustrations": 10863, "Ġ\\\"": 10864, "ĠFranklin": 10865, "Ġdrainpipe": 10866, "knife": 10867, "ĠFrame": 10868, "umphrey": 10869, "Ġmotorcyle": 10870, "ĠToodles": 10871, "ĠThelma": 10872, "ĠLyn": 10873, "ĠNila": 10874, "itÃ¢": 10875, "ĠGrrr": 10876, "treasure": 10877, "Ġsmock": 10878, "ĠThus": 10879, "ĠSandyÃ¢": 10880, "ĠLO": 10881, "Ġoverindulge": 10882, "Ġfingernails": 10883, "Åĵand": 10884, "Ġstegosaurus": 10885, "ĠTidying": 10886, "Ġmaneu": 10887, "jumping": 10888, "Aid": 10889, "Ġmonarch": 10890, "Unknown": 10891, "Ġdeadly": 10892, "Grrr": 10893, "Baking": 10894, "helloÃ¢": 10895, "li": 10896, "cluck": 10897, "Bzzz": 10898, "compassionate": 10899, "ccasionally": 10900, "ĠPatÃ¢": 10901, "ĠgrandparentÃ¢": 10902, "Ġvulnerable": 10903, "ĠShortly": 10904, "Ġdeterminedly": 10905, "ĠTornado": 10906, "ÅĵYep": 10907, "Stuart": 10908, "Ġyogi": 10909, "increase": 10910, "Ġunwound": 10911, "wah": 10912, "Ġspotty": 10913, "poin": 10914, "Ġflowy": 10915, "Ġfracture": 10916, "Ġgymnast": 10917, "Ġfools": 10918, "Ġdoodles": 10919, "Ġsquiggle": 10920, "Ġsanct": 10921, "Fritz": 10922, "Satisfied": 10923, "Def": 10924, "Wanna": 10925, "ĠKrystal": 10926, "ĠkingÃ¢": 10927, "university": 10928, "Cauliflower": 10929, "ĠflowerÃ¢": 10930, "Ġtogetherness": 10931, "ÅĵR": 10932, "ĠLuLu": 10933, "Ask": 10934, "ĠDavis": 10935, "buzz": 10936, "Ġflys": 10937, "isturbed": 10938, "Ġconcussion": 10939, "Ġunimpressed": 10940, "Ġracehorse": 10941, "Dilly": 10942, "umpkin": 10943, "Ġskyscraper": 10944, "ÅĵTrust": 10945, "Ġ!": 10946, "ĠStyle": 10947, "ĠFrozen": 10948, "Kneel": 10949, "Doesn": 10950, "ĠWiping": 10951, "clude": 10952, "ĠUrge": 10953, "Ġalertly": 10954, "ĠEraser": 10955, "ĠFlutterby": 10956, "ĠTyra": 10957, "Riya": 10958, "supply": 10959, "Ġwrath": 10960, "ĠbackÃ¢": 10961, "Ġmaintain": 10962, "Tea": 10963, "trod": 10964, "ĠhimÃ¢": 10965, "Jada": 10966, "ĠKala": 10967, "ĠMaggieÃ¢": 10968, "Ġchry": 10969, "dust": 10970, "ĠBianca": 10971, "ĠdriverÃ¢": 10972, "train": 10973, "ĠcowÃ¢": 10974, "Spotty": 10975, "Ġjellybean": 10976, "ĠName": 10977, "Rina": 10978, "ĠDiva": 10979, "Ġcouncil": 10980, "ĠKirby": 10981, "Ġraspy": 10982, "ĠMunch": 10983, "ĠMorning": 10984, "Ġdescribing": 10985, "ĠElphi": 10986, "ĠBritney": 10987, "gg": 10988, "Vegetables": 10989, "Kirsty": 10990, "ĠFraser": 10991, "ĠMoana": 10992, "ĠSniffy": 10993, "ĠLeni": 10994, "Ġheavenly": 10995, "ĠWord": 10996, "Ġbrowsed": 10997, "ĠPancake": 10998, "ĠoutÃ¢": 10999, "ĠMarkÃ¢": 11000, "Regular": 11001, "JennyÃ¢": 11002, "ID": 11003, "ĠSabina": 11004, "Ġsubmerged": 11005, "ĠsecretÃ¢": 11006, "Ġbackdrop": 11007, "Ġlastly": 11008, "Ġtuft": 11009, "ĠTeamwork": 11010, "Ġhaunt": 11011, "Ġsweeps": 11012, "Ġkidnapped": 11013, "Bryan": 11014, "heit": 11015, "Glue": 11016, "ĠThankful": 11017, "Ġrefill": 11018, "ĠWalk": 11019, "ĠCecil": 11020, "ĠCrunch": 11021, "Ġclumps": 11022, "uncan": 11023, "number": 11024, "juice": 11025, "ÅĵMine": 11026, "ĠRides": 11027, "Moving": 11028, "ĠSniff": 11029, "Taxi": 11030, "friendly": 11031, "goal": 11032, "ĠNeighbor": 11033, "uys": 11034, "Yawn": 11035, "Ġsplatter": 11036, "Ġcanopy": 11037, "ĠChompy": 11038, "perfect": 11039, "ĠPeaceful": 11040, "ĠCelebrating": 11041, "ĠZork": 11042, "ĠandÃ¢": 11043, "ĠpleaseÃ¢": 11044, "Gabe": 11045, "rainbow": 11046, "Ġspraw": 11047, "Ġsanctuary": 11048, "mie": 11049, "ilm": 11050, "Ġsalesman": 11051, "Ġsuspicion": 11052, "ĠthingÃ¢": 11053, "Party": 11054, "ĠMargret": 11055, "Tip": 11056, "ĠSausage": 11057, "Åĵof": 11058, "nives": 11059, "ĠTarzan": 11060, "ĠbeforeÃ¢": 11061, "Ġswamps": 11062, "Ġmounted": 11063, "Anchor": 11064, "ĠCrawling": 11065, "ĠString": 11066, "ĠstrangeÃ¢": 11067, "Gather": 11068, "ĠExams": 11069, "checkmate": 11070, "ĠAfraid": 11071, "Craw": 11072, "ĠJodi": 11073, "ĠnameÃ¢": 11074, "ĠSuzanne": 11075, "ĠbirdsÃ¢": 11076, "Swan": 11077, "University": 11078, "ĠChatter": 11079, "ĠKimberly": 11080, "Ġshuttle": 11081, "Ġpersuasion": 11082, "Ġsucculent": 11083, "ĠAslan": 11084, "Ġaccuracy": 11085, "ĠFrancine": 11086, "Bibi": 11087, "Ġnarrowly": 11088, "Pierre": 11089, "Ġretrace": 11090, "Ġchrysalis": 11091, "Ġmicrobes": 11092, "ĠOUT": 11093, "Ġresurfaced": 11094, "Ġoutburst": 11095, "Ġleisurely": 11096, "ĠAxel": 11097, "Otter": 11098, "Ġoptimism": 11099, "ÅĵSurrender": 11100, "Ġlightness": 11101, "Vanilla": 11102, "ĠTigo": 11103, "Ġyoghurt": 11104, "close": 11105, "ĠDuffy": 11106, "unzel": 11107, "ĠSawyer": 11108, "ĠCarmen": 11109, "Ġboyfriend": 11110, "ĠVi": 11111, "ĠAustin": 11112, "ĠRule": 11113, "ĠSurf": 11114, "ĠRic": 11115, "ĠJuJu": 11116, "ĠDesk": 11117, "Ġdemonstrating": 11118, "ĠBennyÃ¢": 11119, "Ġinvolving": 11120, "ĠwolfÃ¢": 11121, "ĠUpset": 11122, "ÅĵSue": 11123, "Ġsauntered": 11124, "Ġmelodious": 11125, "Ġworkman": 11126, "Maxi": 11127, "Ġcrossly": 11128, "Jin": 11129, "Cricket": 11130, "dink": 11131, "Ġhunched": 11132, "poof": 11133, "Organizing": 11134, "ĠAsia": 11135, "Mirror": 11136, "Ġbishop": 11137, "ĠgrandparentsÃ¢": 11138, "Ġacknowledged": 11139, "Ġgladness": 11140, "ĠLillyÃ¢": 11141, "ĠDoctors": 11142, "find": 11143, "Monkeys": 11144, "Bunbun": 11145, "Ġsurfs": 11146, "Ġthrust": 11147, "Curiosity": 11148, "ÅĵShall": 11149, "Åĵdon": 11150, "Gesund": 11151, "Gesundheit": 11152, "TimÃ¢": 11153, "Ġimpuls": 11154, "ĠmamaÃ¢": 11155, "ATE": 11156, "Ġshawl": 11157, "Ġcenterpiece": 11158, "Shortly": 11159, "Sssss": 11160, "Ġscorpion": 11161, "ĠAlexÃ¢": 11162, "Display": 11163, "Otherwise": 11164, "Pedro": 11165, "Ġunblock": 11166, "ĠGeoffrey": 11167, "Ġtiredly": 11168, "Feel": 11169, "ĠFull": 11170, "Ġdodgeball": 11171, "munk": 11172, "Ġsunlit": 11173, "ĠwizardÃ¢": 11174, "ĠBreakfast": 11175, "ĠexcitedÃ¢": 11176, "ĠsorryÃ¢": 11177, "Elmo": 11178, "Peaches": 11179, "Ġflask": 11180, "Ġgnarled": 11181, "Ġskiing": 11182, "Mit": 11183, "Ġsubstitute": 11184, "ĠBirthdayÃ¢": 11185, "Sail": 11186, "Ġdebt": 11187, "huh": 11188, "ĠseeÃ¢": 11189, "Ġruckus": 11190, "Lin": 11191, "ĠPollyÃ¢": 11192, "Ġnudging": 11193, "Dig": 11194, "Unlock": 11195, "Ġdeceiving": 11196, "ĠPutu": 11197, "ĠElp": 11198, "Ġyouthful": 11199, "Ġachievable": 11200, "Ġshowy": 11201, "Stu": 11202, "Mysterious": 11203, "ltimately": 11204, "Ġbattling": 11205, "ĠRussell": 11206, "Ġ36": 11207, "ÅĵSweetheart": 11208, "Ġinterview": 11209, "Unexpectedly": 11210, "ĠSugi": 11211, "Stripes": 11212, "ĠworryÃ¢": 11213, "Ġpursue": 11214, "Ġdefinition": 11215, "Ġleague": 11216, "Name": 11217, "Enter": 11218, "ĠGraceÃ¢": 11219, "ĠothersÃ¢": 11220, "Ġundisturbed": 11221, "Ġbanquet": 11222, "BOO": 11223, "ĠFirstly": 11224, "?,": 11225, "Thankful": 11226, "trust": 11227, "ĠAugust": 11228, "ĠDING": 11229, "Knives": 11230, "Fast": 11231, "Ġtransfixed": 11232, "Ġcradle": 11233, "fiving": 11234, "felt": 11235, "Pa": 11236, "Ġbronze": 11237, "Ġtoothpick": 11238, "Ġkidnap": 11239, "Humble": 11240, "ĠusÃ¢": 11241, "Priscilla": 11242, "TIK": 11243, "ĠSuni": 11244, "ĠMotorcy": 11245, "Ġbackflip": 11246, "Ġtrapeze": 11247, "Ġillegal": 11248, "TH": 11249, "Ġreju": 11250, "ĠLowry": 11251, "Break": 11252, "Peach": 11253, "Ġmessiness": 11254, "ĠZuri": 11255, "ĠTO": 11256, "Neither": 11257, "Half": 11258, "ĠDirk": 11259, "ĠAnnika": 11260, "Ġsync": 11261, "ĠJacques": 11262, "ÅĵLola": 11263, "whoa": 11264, "Ġbaldness": 11265, "Ġcoziness": 11266, "Murphy": 11267, "ography": 11268, "ĠGrass": 11269, "yza": 11270, "Ġwellbeing": 11271, "ĠThumb": 11272, "Ġsputter": 11273, "Ġbutt": 11274, "Ġelectro": 11275, "Ġelectrocuted": 11276, "ĠRadio": 11277, "Ġdrow": 11278, "VP": 11279, "Ġsmooch": 11280, "Keith": 11281, "bowl": 11282, "Ġpottery": 11283, "Emi": 11284, "ĠEwan": 11285, "ĠStranger": 11286, "123": 11287, "ĠEngland": 11288, "ĠChoco": 11289, "Ġwatercolors": 11290, "ĠTui": 11291, "LP": 11292, "!`": 11293, "safe": 11294, "aitlin": 11295, "ĠFountain": 11296, "ĠSquiggles": 11297, "Ġscarecrows": 11298, "Ġbeanbag": 11299, "ĠTire": 11300, "ĠRapunzel": 11301, "ĠNinja": 11302, "Ġvulture": 11303, "ĠJaycee": 11304, "ĠBulls": 11305, "ĠBrayden": 11306, "ĠCroak": 11307, "ĠBebo": 11308, "ĠFlopps": 11309, "Åĵhi": 11310, "Pixie": 11311, "ĠplaceÃ¢": 11312, "Ġsunburnt": 11313, "Ġsermon": 11314, "Ap": 11315, "Cynthia": 11316, "Puzz": 11317, "drip": 11318, "ĠStrangely": 11319, "dictionary": 11320, "ĠFigure": 11321, "ĠDive": 11322, "Ġfulfil": 11323, "Ġsketchbook": 11324, "Ġtyrannosaurus": 11325, "Ġscurvy": 11326, "Cact": 11327, "Ġadvance": 11328, "ĠRocko": 11329, "Ġblissfully": 11330, "Ġapprehensive": 11331, "Ġoozing": 11332, "Ġthickness": 11333, "Nah": 11334, "Ġhumid": 11335, "Ġconcession": 11336, "Ġpalette": 11337, "Ġdrizzle": 11338, "ĠOzzy": 11339, "Ġpooch": 11340, "ĠStaying": 11341, "Ġchuckling": 11342, "ĠTillie": 11343, "Ġpassersby": 11344, "Ġreels": 11345, "Ġenviously": 11346, "Dive": 11347, "Ġprescribed": 11348, "growth": 11349, "Ġundergrowth": 11350, "duck": 11351, "Ġresilience": 11352, "ĠFiles": 11353, "Ġspick": 11354, "Unfreeze": 11355, "ĠMitzy": 11356, "Emmi": 11357, "Guys": 11358, "Soar": 11359, "Ġdiscs": 11360, "Zac": 11361, "Ġcommunication": 11362, "Ġ3D": 11363, "Ġcue": 11364, "Ġproposal": 11365, "Ġuncurled": 11366, "SNAP": 11367, "improve": 11368, "rying": 11369, "LY": 11370, "ĠBlythe": 11371, "ĠCheerful": 11372, "AM": 11373, "Feather": 11374, "Ġdidnt": 11375, "Ġgrandeur": 11376, "Ink": 11377, "ONK": 11378, "Kindness": 11379, "Furniture": 11380, "ĠBalls": 11381, "Ġcomfier": 11382, "ĠOffice": 11383, "cro": 11384, "ĠJohnnyÃ¢": 11385, "Ġloaves": 11386, "isagree": 11387, "asked": 11388, "ÅĵMandy": 11389, "ĠownerÃ¢": 11390, "Ġqueue": 11391, "Ġmurmuring": 11392, "ĠBellaÃ¢": 11393, "Ġalternative": 11394, "ÅĵJake": 11395, "Friendly": 11396, "ĠEdith": 11397, "ĠDavie": 11398, "ĠSelfish": 11399, "Ġpossessive": 11400, "Ġtablespoon": 11401, "Ġrearview": 11402, "ĠBatteries": 11403, "Ġstupidly": 11404, "ĠRanch": 11405, "fighter": 11406, "famous": 11407, "Ġepisode": 11408, "Ġpartly": 11409, "Ġpainless": 11410, "Ġtackling": 11411, "ĠCas": 11412, "Ġtutors": 11413, "Myra": 11414, "Ġutter": 11415, "Ġarmadillo": 11416, "Owls": 11417, "ĠShadows": 11418, "Brett": 11419, "ĠPaying": 11420, "ĠDavidÃ¢": 11421, "ĠAWAY": 11422, "Fizzy": 11423, "ĠFig": 11424, "Barbara": 11425, "ĠPrice": 11426, "ĠPrudence": 11427, "Walk": 11428, "ĠSecret": 11429, "Flap": 11430, "ĠDishwasher": 11431, "ĠDarcy": 11432, "Octopus": 11433, "Pancakes": 11434, "Daphne": 11435, "ĠLumi": 11436, "SVP": 11437, "ĠRSVP": 11438, "ĠBicycle": 11439, "ĠDJ": 11440, "ĠSylvie": 11441, "vously": 11442, "Blueberry": 11443, "Hayley": 11444, "Ġfishbowl": 11445, "ĠCAW": 11446, "ĠKelvin": 11447, "Bake": 11448, "Expensive": 11449, "55": 11450, "ĠKally": 11451, "ĠMeredith": 11452, "ĠRix": 11453, "ĠProtector": 11454, "Tigger": 11455, "Ġclothespin": 11456, "Tobi": 11457, "ĠRude": 11458, "ĠDuckling": 11459, "Ġendure": 11460, "ĠQuiz": 11461, "ĠPrim": 11462, "Gertrude": 11463, "ĠJakob": 11464, "xie": 11465, "ĠGenna": 11466, "ĠBirdcage": 11467, "ĠIma": 11468, "ĠKoko": 11469, "ĠBini": 11470, "ĠRowdy": 11471, "ĠBaaBaa": 11472, "ĠSpidy": 11473, "ĠTock": 11474, "ĠCilla": 11475, "ĠCyril": 11476, "ĠthisÃ¢": 11477, "BillyÃ¢": 11478, "ĠDetermined": 11479, "ĠBurn": 11480, "noÃ¢": 11481, "Ġpuzzling": 11482, "serve": 11483, "Ġunve": 11484, "ĠSandwiches": 11485, "ĠauntÃ¢": 11486, "excuse": 11487, "Ġwoozy": 11488, "Fi": 11489, "Ġkindhearted": 11490, "OL": 11491, "Bouncing": 11492, "Ġexclaim": 11493, "Åĵoh": 11494, "ĠIreland": 11495, "Ġoverslept": 11496, "AK": 11497, "purple": 11498, "Fresh": 11499, "Rhino": 11500, "Ġwrestling": 11501, "Property": 11502, "Ġmutt": 11503, "Ġexpedition": 11504, "bin": 11505, "ÅĵEvery": 11506, "Ġgirlfriend": 11507, "Aimee": 11508, "Ġtripod": 11509, "ĠChipmunk": 11510, "ÅĵJames": 11511, "ĠProud": 11512, "Price": 11513, "ĠCourtney": 11514, "ĠMariaÃ¢": 11515, "Ġdivorce": 11516, "Ġherbivore": 11517, "ĠWOOF": 11518, "Ġpersistant": 11519, "ĠElectricity": 11520, "butterfly": 11521, "ĠLilaÃ¢": 11522, "Ġquill": 11523, "Ġgiftedness": 11524, "Full": 11525, "Pirates": 11526, "Racing": 11527, "ĠMillyÃ¢": 11528, "Ġprivilege": 11529, "ĠGerms": 11530, "Moira": 11531, "Ġlunchroom": 11532, "Pirate": 11533, "âĤ¬âĦ¢?": 11534, "Kip": 11535, "Ġpredicament": 11536, "ĠBillÃ¢": 11537, "ĠGodmother": 11538, "ĠtoyÃ¢": 11539, "Ġhairpin": 11540, "Ġwhinnying": 11541, "Ġinfluen": 11542, "Planes": 11543, "Ġintrude": 11544, "CE": 11545, "sugar": 11546, "Rino": 11547, "Ġrumors": 11548, "block": 11549, "ĠsoonÃ¢": 11550, "ĠThump": 11551, "Tucker": 11552, "ĠSoak": 11553, "Ġcontinuous": 11554, "Ġannual": 11555, "!)": 11556, "ĠMonte": 11557, "ĠPercival": 11558, "nightmare": 11559, "ĠTig": 11560, "Ġbathwater": 11561, "destroy": 11562, "Ġsquiggling": 11563, "Ġalleys": 11564, "Ġtherapy": 11565, "Hush": 11566, "ĠDumbo": 11567, "price": 11568, "ĠUnless": 11569, "Ġweatherman": 11570, "road": 11571, "ĠCandice": 11572, "ĠEee": 11573, "Ġhoarded": 11574, "ĠBlitzen": 11575, "Luxury": 11576, "ĠRio": 11577, "Hocus": 11578, "ĠMurp": 11579, "ĠOcti": 11580, "ĠQuinn": 11581, "Ġshudder": 11582, "ĠWide": 11583, "Ace": 11584, "Serve": 11585, "ĠReginald": 11586, "ĠRomeo": 11587, "Ġriverbed": 11588, "Hun": 11589, "Ġholster": 11590, "ĠZeus": 11591, "JillÃ¢": 11592, "ĠUnusual": 11593, "ÅĵMake": 11594, "ĠHaircuts": 11595, "Cele": 11596, "trick": 11597, "Freckles": 11598, "ĠOccasionally": 11599, "Ġairc": 11600, "Ġfluid": 11601, "xious": 11602, "Ġgeography": 11603, "ĠCady": 11604, "ĠNadine": 11605, "ĠFuzzball": 11606, "ĠforÃ¢": 11607, "ĠKateÃ¢": 11608, "left": 11609, "ĠEight": 11610, "Radishes": 11611, "Ġdrought": 11612, "ĠElma": 11613, "ĠSheryl": 11614, "ĠCupcake": 11615, "Ġdislike": 11616, "Ġcounselors": 11617, "dinner": 11618, "Lili": 11619, "Ġcyg": 11620, "Victoria": 11621, "Ġox": 11622, "Ġ555": 11623, "1234": 11624, "Goodness": 11625, "Ġoutraged": 11626, "Buckle": 11627, "clist": 11628, "ĠVase": 11629, "Irene": 11630, "ĠLux": 11631, "ĠPunky": 11632, "Ġsum": 11633, "ĠPumpy": 11634, "Wrap": 11635, "Ġexqu": 11636, "ĠYani": 11637, "fry": 11638, "ĠNic": 11639, "ĠDoc": 11640, "Ġnutcracker": 11641, "ĠNisha": 11642, "ĠBoard": 11643, "throw": 11644, "ĠNoisy": 11645, "ĠMullins": 11646, "Ġgruffalo": 11647, "ĠDarlene": 11648, "ĠNanu": 11649, "Ġsnowdog": 11650, "ĠNigel": 11651, "ĠEr": 11652, "ĠTiko": 11653, "ĠMarv": 11654, "ĠRossi": 11655, "ĠFuffy": 11656, "ĠSpooky": 11657, "ĠRussel": 11658, "Ġrejoicing": 11659, "Ġinevitable": 11660, "Giddy": 11661, "ĠConstruction": 11662, "Ġpews": 11663, "Ġbicker": 11664, "ĠJewels": 11665, "ĠisÃ¢": 11666, "ĠgiftÃ¢": 11667, "silly": 11668, "ĠpigÃ¢": 11669, "Ġbasin": 11670, "bolt": 11671, "ĠMcQueen": 11672, "ĠanimalÃ¢": 11673, "Prove": 11674, "ĠPopular": 11675, "Ġanyplace": 11676, "Zog": 11677, "Agreed": 11678, "ji": 11679, "ĠCanÃ¢": 11680, "Load": 11681, "Cactus": 11682, "Nevermind": 11683, "ĠGrammy": 11684, "Bas": 11685, "Ġswerving": 11686, "ĠOwner": 11687, "Icy": 11688, "Ġgesturing": 11689, "upon": 11690, "squeak": 11691, "Corn": 11692, "Ġobeys": 11693, "Turkey": 11694, "Ġmanageable": 11695, "Ġdreadful": 11696, "flops": 11697, "Ġbeckoning": 11698, "Nadia": 11699, "Ġwoodpile": 11700, "ĠOrganize": 11701, "ÅĵEat": 11702, "only": 11703, "Measuring": 11704, "Ġlurk": 11705, "AmyÃ¢": 11706, "ÅĵY": 11707, "ĠBrightly": 11708, "Ġadorned": 11709, "drink": 11710, "Ġprotectors": 11711, "ĠDuncan": 11712, "Ġbandleader": 11713, "Hockey": 11714, "Ġfarmhand": 11715, "Åĵgood": 11716, "Åĵsee": 11717, "ĠplayÃ¢": 11718, "Ġforeshadows": 11719, "Curly": 11720, "ÅĵMaking": 11721, "Ġmock": 11722, "Lucia": 11723, "ĠworldÃ¢": 11724, "Ġconsisted": 11725, "Ġyipping": 11726, "Ġflexing": 11727, "Library": 11728, "ELL": 11729, "Ġwettest": 11730, "ĠHUGE": 11731, "Ġastray": 11732, "Ġfreckle": 11733, "Ġdeadline": 11734, "black": 11735, "ĠTickles": 11736, "Flip": 11737, "OUS": 11738, "ologist": 11739, "Ġadvise": 11740, "Ġsacrificing": 11741, "Ġclassic": 11742, "Kid": 11743, "Definitely": 11744, "ĠJeremiah": 11745, "ĠtodayÃ¢": 11746, "Bradley": 11747, "clap": 11748, "Fruit": 11749, "Ġthrift": 11750, "Ġfateful": 11751, "Ġsharping": 11752, "Steam": 11753, "Ġforlor": 11754, "Ġforlorn": 11755, "Owner": 11756, "Ġleafs": 11757, "ĠgardenÃ¢": 11758, "display": 11759, "uffling": 11760, "ĠheartÃ¢": 11761, "Ġscorched": 11762, "Bart": 11763, "Ohhh": 11764, "ĠFireflies": 11765, "Ġunreliable": 11766, "PR": 11767, "ĠJanuary": 11768, "ĠElton": 11769, "recogn": 11770, "ÅĵEnjoy": 11771, "ĠLeoÃ¢": 11772, "Ġglowy": 11773, "Pumpkin": 11774, "ĠUnpack": 11775, "Ġloveable": 11776, "Ġwintry": 11777, "ĠMyles": 11778, "Ġeh": 11779, "blast": 11780, "Ġnutrition": 11781, "ĠPresident": 11782, "titude": 11783, "Ġaltitude": 11784, "Cassy": 11785, "Ġforeboding": 11786, "Ġheartfelt": 11787, "ĠVan": 11788, "Pablo": 11789, "Crunch": 11790, "ĠPrancer": 11791, "ĠVixen": 11792, "Ġacid": 11793, "Ġpuffer": 11794, "Ġblindfold": 11795, "ĠOutback": 11796, "Ġdeflate": 11797, "ĠHut": 11798, "Ġbedbugs": 11799, "Riding": 11800, "Ġokapi": 11801, "Ġrejuvenated": 11802, "ÅĵMike": 11803, "Ġbluebell": 11804, "ĠFixit": 11805, "Ġillusion": 11806, "ĠPutting": 11807, "Protect": 11808, "cine": 11809, "Malcolm": 11810, "Åĵhere": 11811, "Ġlifejacket": 11812, "Åĵwho": 11813, "Ġmonument": 11814, "Barkley": 11815, "Ġplayfulness": 11816, "Åĵwow": 11817, "ircle": 11818, "Celebrate": 11819, "Ġshowman": 11820, "po": 11821, "ĠJaqueline": 11822, "ĠGrinning": 11823, "Jac": 11824, "ĠSkunks": 11825, "ÅĵMark": 11826, "Important": 11827, "Mush": 11828, "Wipe": 11829, "Pic": 11830, "Ġsawdust": 11831, "Ġcartridge": 11832, "Ġshellfish": 11833, "BEEP": 11834, "Ġscoreboard": 11835, "Jared": 11836, "ĠBacon": 11837, "Ġuncurl": 11838, "ĠPOOF": 11839, "ĠStrawberries": 11840, "ĠMagda": 11841, "ĠGramma": 11842, "aryl": 11843, "ĠSwamp": 11844, "Ġheaddress": 11845, "ĠBink": 11846, "Ġyowl": 11847, "ĠHATE": 11848, "Victor": 11849, "ĠIde": 11850, "ÂłĠĠ": 11851, "Â¢": 11852, "Ġcackle": 11853, "Band": 11854, "ĠthemÃ¢": 11855, "Destroy": 11856, "Ġassembly": 11857, "ĠDM": 11858, "ĠDMV": 11859, "Miley": 11860, "Ġtattoo": 11861, "Ġpunctual": 11862, "ĠKory": 11863, "ĠJaxon": 11864, "ĠSergeant": 11865, "bonjour": 11866, "Ġexquisite": 11867, "ĠObie": 11868, "Ġcym": 11869, "ĠSword": 11870, "ĠWebby": 11871, "ĠMask": 11872, "hun": 11873, "affa": 11874, "Ġfrightful": 11875, "si": 11876, "Ġmusk": 11877, "Ġmuskrat": 11878, "ĠBur": 11879, "ĠMidge": 11880, "ĠSneezy": 11881, "Ġchestnut": 11882, "ĠMiri": 11883, "Ġ<": 11884, "ffi": 11885, "Camila": 11886, "ĠWags": 11887, "Button": 11888, "ĠGeddy": 11889, "ĠPhoenix": 11890, "ĠGander": 11891, "ĠInstinctively": 11892, "Ġfondness": 11893, "ÅĵokayÃ¢": 11894, "Pigeon": 11895, "ÅĵSir": 11896, "Search": 11897, "Ġselfie": 11898, "yy": 11899, "Ġschoolbag": 11900, "Eight": 11901, "ÅĵMore": 11902, "celebrate": 11903, "Ġalcohol": 11904, "ĠFoxes": 11905, "AS": 11906, "ĠOcean": 11907, "ÅĵMagic": 11908, "wa": 11909, "Ġwaltz": 11910, "weird": 11911, "ĠOffer": 11912, "ĠKatieÃ¢": 11913, "Rats": 11914, "ÅĵdonÃ¢": 11915, "Ġunruly": 11916, "Underground": 11917, "giddy": 11918, "ĠBEST": 11919, "Bing": 11920, "ĠEmbarrassed": 11921, "Ġstumps": 11922, "Åĵmy": 11923, "Ġhelplessness": 11924, "Ġunsuspecting": 11925, "EmmaÃ¢": 11926, "Mm": 11927, "ĠhouseÃ¢": 11928, "Ġwondeful": 11929, "ĠSink": 11930, "Fall": 11931, "ĠCamilla": 11932, "Prepare": 11933, "ĠFabian": 11934, "Ġ27": 11935, "Ġshowerhead": 11936, "Ġthrashed": 11937, "Ġtradesman": 11938, "ĠSize": 11939, "Craig": 11940, "Ġgrassland": 11941, "ĠwouldÃ¢": 11942, "point": 11943, "ĠAbigailÃ¢": 11944, "ĠherÃ¢": 11945, "ÅĵO": 11946, "Onions": 11947, "Garage": 11948, "Ġneglect": 11949, "Ġfearfulness": 11950, "Ġforcing": 11951, "ĠPearls": 11952, "Ġmaintenance": 11953, "Brilliant": 11954, "Ġtoothless": 11955, "Ġstrutting": 11956, "Ġsharpness": 11957, "Ġbeforehand": 11958, "ĠMorgan": 11959, "Strawberries": 11960, "Ġeclipse": 11961, "Ġooze": 11962, "ĠRoyce": 11963, "!!!": 11964, "ni": 11965, "spin": 11966, "Ġpeony": 11967, "Ġsandboxes": 11968, "Humpty": 11969, "club": 11970, "ĠBearÃ¢": 11971, "Ġblissful": 11972, "ĠSqueezing": 11973, "discuss": 11974, "thud": 11975, "isagreeing": 11976, "Ġcraftsmanship": 11977, "ĠPostman": 11978, "Ġshutters": 11979, "ĠNOT": 11980, "dressed": 11981, "ĠScissor": 11982, "Ġshush": 11983, "Clown": 11984, "Gain": 11985, "Ġbegrudgingly": 11986, "ĠPermit": 11987, "ĠAtty": 11988, "xic": 11989, "ĠSherlock": 11990, "ÅĵEven": 11991, "Ġbadminton": 11992, "ĠriverÃ¢": 11993, "ĠChloeÃ¢": 11994, "Clyde": 11995, "Ġdeclaring": 11996, "Ġmismatched": 11997, "Ġpendulum": 11998, "Camp": 11999, "ĠUnbeknownst": 12000, "Gee": 12001, "Ġannouncing": 12002, "Neighbor": 12003, "Ġwistfully": 12004, "Ġutterly": 12005, "disappear": 12006, "Ġmalfun": 12007, "ĠCharming": 12008, "ĠstarÃ¢": 12009, "ĠAuto": 12010, "Crawl": 12011, "Jodi": 12012, "ĠKaleb": 12013, "Ġengraved": 12014, "Snowf": 12015, "Davy": 12016, "ĠHunt": 12017, "Sienna": 12018, "Elderly": 12019, "Cal": 12020, "ĠDick": 12021, "circle": 12022, "milk": 12023, "wrapped": 12024, "ĠturtleÃ¢": 12025, "Ġcassette": 12026, "UR": 12027, "ĠZola": 12028, "ĠKo": 12029, "Ġkilogram": 12030, "Ġmegaphone": 12031, "ĠLolaÃ¢": 12032, "Ġheadline": 12033, "ĠCleanliness": 12034, "ĠJamieÃ¢": 12035, "ĠChimney": 12036, "Wolfie": 12037, "ĠIyza": 12038, "Ġyip": 12039, "Crocodiles": 12040, "Fee": 12041, "Bury": 12042, "ĠCinderella": 12043, "Ġexpiration": 12044, "ĠJacqueline": 12045, "ĠSacha": 12046, "ĠDaryl": 12047, "SueÃ¢": 12048, "ĠKermit": 12049, "ĠNami": 12050, "ĠJayce": 12051, "Ġshrimpy": 12052, "Ġstools": 12053, "Ġcygnet": 12054, "ĠSprout": 12055, "Gifted": 12056, "Ġhooping": 12057, "Â¿": 12058, "ĠBJ": 12059, "ĠHarmless": 12060, "Ġwildfire": 12061, "addle": 12062, "ĠRelief": 12063, "ĠCreature": 12064, "Joshua": 12065, "ĠAmbi": 12066, "Ġcyclist": 12067, "Ġ17": 12068, "Ġcomplexion": 12069, "ĠRhys": 12070, "ĠPatrice": 12071, "ĠClaraÃ¢": 12072, ".`": 12073, "org": 12074, "ĠHeavy": 12075, "driver": 12076, "ĠJabari": 12077, "Ġsickly": 12078, "ĠPlip": 12079, "ĠCam": 12080, "Ġtrashcan": 12081, "Ġwoodchopper": 12082, "ĠCray": 12083, "Ġswordsman": 12084, "Ġfriendliness": 12085, "ĠLuci": 12086, "ĠBumblebee": 12087, "ĠBarkly": 12088, "ĠWisp": 12089, "ĠLloyd": 12090, "ĠGio": 12091, "ĠSlowpoke": 12092, "ĠTide": 12093, "ĠAdi": 12094, "ĠHummy": 12095, "ĠCoach": 12096, "Kris": 12097, "ĠPrickles": 12098, "ĠKrizzle": 12099, "ĠJacko": 12100, "uf": 12101, "ĠCinder": 12102, "Ġzombie": 12103, "ĠPebby": 12104, "Ġcowbell": 12105, "ĠDutch": 12106, "ĠKandy": 12107, "ĠJayne": 12108, "ĠNastya": 12109, "ĠTutu": 12110, "ĠPio": 12111, "Ġabide": 12112, "qui": 12113, "Ġloudness": 12114, "dive": 12115, "ĠBizzy": 12116, "ĠswanÃ¢": 12117, "Ġridiculous": 12118, "ĠRef": 12119, "Dusty": 12120, "ĠSpice": 12121, "ĠZzzzz": 12122, "Ġablaze": 12123, "Ġsightseeing": 12124, "Foxes": 12125, "Sadness": 12126, "Ġ10th": 12127, ",'\"": 12128, "Ġvocab": 12129, "Ġvocabulary": 12130, "Ġoccurren": 12131, "Ġoccurrence": 12132, "Ġquickness": 12133, "trap": 12134, "Ġ80": 12135, "Ġtassels": 12136, "ĠAND": 12137, "Words": 12138, "Ġacquired": 12139, "ZE": 12140, "Waffle": 12141, "Ġstepmother": 12142, "ĠExamine": 12143, "Ġconfess": 12144, "Flea": 12145, "Ġdisappro": 12146, "treat": 12147, "Ġpence": 12148, "AnnaÃ¢": 12149, "strike": 12150, "Ġjutting": 12151, "hmm": 12152, "ĠStrength": 12153, "Ġmurmur": 12154, "control": 12155, "Ġ13": 12156, "ĠPatter": 12157, "push": 12158, "Aurora": 12159, "ĠkidÃ¢": 12160, "ĠspiderÃ¢": 12161, "Ġvampire": 12162, "ĠPresent": 12163, "Horsy": 12164, "River": 12165, "feeder": 12166, "ĠThread": 12167, "Li": 12168, "Ġrandomly": 12169, "ĠEnjoying": 12170, "UMP": 12171, "ĠAlys": 12172, "Ġaccount": 12173, "Examine": 12174, "Ġjerk": 12175, "Ġspellbound": 12176, "Ġlollypop": 12177, "ĠNail": 12178, "Ġgeologist": 12179, "Ġ60": 12180, "Ġcicada": 12181, "Crab": 12182, "Ġjoyride": 12183, "Ġstench": 12184, "Upset": 12185, "Ġembedded": 12186, "Brush": 12187, "Ġseafloor": 12188, "Ġplaque": 12189, "Ġinfluence": 12190, "ĠcarÃ¢": 12191, "ĠTeddyÃ¢": 12192, "Ġunhappily": 12193, "Ġhavoc": 12194, "Ġstormcloud": 12195, "Firefighters": 12196, "LI": 12197, "Åĵdo": 12198, "Åĵwhere": 12199, "Ġsluggish": 12200, "INE": 12201, "aaaa": 12202, "Fluff": 12203, "Wren": 12204, "Ġstargazing": 12205, "tractive": 12206, "ĠAubrey": 12207, "Ġhoard": 12208, "Ġweirdly": 12209, "blub": 12210, "ĠCurtis": 12211, "Ġterminal": 12212, "Ġmanual": 12213, "ĠMailbox": 12214, "ĠbullÃ¢": 12215, "fident": 12216, "Ġelegance": 12217, "ĠokayÃ¢": 12218, "Ġremorseful": 12219, "ĠExam": 12220, "ĠSprocket": 12221, "ĠFedor": 12222,
[...]
